const unsigned char wifi_rssi_model[] = {32,0,0,0,84,70,76,51,0,0,0,0,20,0,32,0,28,0,24,0,20,0,16,0,12,0,0,0,8,0,4,0,20,0,0,0,28,0,0,0,140,0,0,0,220,0,0,0,172,39,0,0,188,39,0,0,124,115,0,0,3,0,0,0,1,0,0,0,4,0,0,0,158,157,255,255,12,0,0,0,28,0,0,0,60,0,0,0,15,0,0,0,115,101,114,118,105,110,103,95,100,101,102,97,117,108,116,0,1,0,0,0,4,0,0,0,4,159,255,255,44,0,0,0,4,0,0,0,8,0,0,0,111,117,116,112,117,116,95,48,0,0,0,0,1,0,0,0,4,0,0,0,18,158,255,255,4,0,0,0,15,0,0,0,107,101,114,97,115,95,116,101,110,115,111,114,95,50,48,0,2,0,0,0,44,0,0,0,4,0,0,0,80,159,255,255,130,0,0,0,4,0,0,0,19,0,0,0,67,79,78,86,69,82,83,73,79,78,95,77,69,84,65,68,65,84,65,0,116,159,255,255,129,0,0,0,4,0,0,0,19,0,0,0,109,105,110,95,114,117,110,116,105,109,101,95,118,101,114,115,105,111,110,0,131,0,0,0,204,38,0,0,196,38,0,0,168,38,0,0,140,38,0,0,112,38,0,0,32,38,0,0,12,38,0,0,248,37,0,0,228,37,0,0,204,37,0,0,184,37,0,0,164,37,0,0,136,37,0,0,116,37,0,0,108,37,0,0,100,37,0,0,76,37,0,0,68,37,0,0,60,37,0,0,52,37,0,0,44,37,0,0,36,37,0,0,28,37,0,0,20,37,0,0,12,37,0,0,4,37,0,0,252,36,0,0,244,36,0,0,236,36,0,0,228,36,0,0,220,36,0,0,212,36,0,0,204,36,0,0,196,36,0,0,188,36,0,0,180,36,0,0,172,36,0,0,164,36,0,0,156,36,0,0,148,36,0,0,140,36,0,0,132,36,0,0,124,36,0,0,116,36,0,0,108,36,0,0,100,36,0,0,92,36,0,0,84,36,0,0,76,36,0,0,68,36,0,0,60,36,0,0,52,36,0,0,44,36,0,0,36,36,0,0,28,36,0,0,20,36,0,0,12,36,0,0,4,36,0,0,252,35,0,0,244,35,0,0,236,35,0,0,228,35,0,0,220,35,0,0,204,33,0,0,188,31,0,0,172,15,0,0,164,15,0,0,156,15,0,0,148,15,0,0,140,15,0,0,132,15,0,0,124,15,0,0,116,15,0,0,108,15,0,0,100,15,0,0,92,15,0,0,84,15,0,0,76,15,0,0,68,15,0,0,60,15,0,0,52,15,0,0,44,15,0,0,36,15,0,0,28,15,0,0,20,15,0,0,12,15,0,0,4,15,0,0,252,14,0,0,244,14,0,0,236,14,0,0,228,14,0,0,220,14,0,0,212,14,0,0,204,14,0,0,196,14,0,0,188,14,0,0,180,14,0,0,172,14,0,0,164,14,0,0,156,14,0,0,148,14,0,0,140,14,0,0,132,14,0,0,124,14,0,0,116,14,0,0,100,13,0,0,84,5,0,0,68,1,0,0,60,1,0,0,52,1,0,0,44,1,0,0,36,1,0,0,28,1,0,0,20,1,0,0,12,1,0,0,4,1,0,0,252,0,0,0,244,0,0,0,236,0,0,0,228,0,0,0,220,0,0,0,212,0,0,0,204,0,0,0,196,0,0,0,188,0,0,0,180,0,0,0,172,0,0,0,164,0,0,0,156,0,0,0,124,0,0,0,4,0,0,0,146,160,255,255,4,0,0,0,104,0,0,0,12,0,0,0,8,0,14,0,8,0,4,0,8,0,0,0,20,0,0,0,48,0,0,0,0,0,10,0,12,0,8,0,0,0,7,0,10,0,0,0,0,0,0,1,4,0,0,0,1,0,0,0,234,3,0,0,12,0,24,0,20,0,16,0,12,0,4,0,12,0,0,0,35,192,92,42,90,199,49,88,2,0,0,0,2,0,0,0,4,0,0,0,6,0,0,0,50,46,49,55,46,49,0,0,6,161,255,255,4,0,0,0,16,0,0,0,50,46,49,55,46,48,0,0,0,0,0,0,0,0,0,0,64,143,255,255,68,143,255,255,72,143,255,255,76,143,255,255,80,143,255,255,84,143,255,255,88,143,255,255,92,143,255,255,96,143,255,255,100,143,255,255,104,143,255,255,108,143,255,255,112,143,255,255,116,143,255,255,120,143,255,255,124,143,255,255,128,143,255,255,132,143,255,255,136,143,255,255,140,143,255,255,144,143,255,255,118,161,255,255,4,0,0,0,0,4,0,0,173,127,218,206,216,51,208,3,223,72,106,43,64,108,111,3,41,254,13,54,11,129,59,10,127,240,212,87,249,255,226,3,221,246,241,48,31,40,253,219,95,158,4,83,213,2,223,129,197,165,60,233,181,228,38,211,62,164,129,34,200,248,69,35,227,169,24,195,146,172,218,227,115,132,185,31,193,129,157,142,161,73,210,198,250,212,57,249,48,41,224,45,129,244,247,10,209,173,15,40,247,249,1,230,54,129,241,246,199,170,252,174,9,170,58,37,226,203,46,129,81,231,243,59,207,144,153,216,232,188,12,28,34,201,47,212,77,233,172,60,129,2,7,28,168,7,226,127,150,169,90,21,83,173,12,48,42,194,211,3,216,159,30,33,160,129,6,241,48,220,209,36,152,1,215,218,179,129,246,14,174,186,239,175,78,155,171,48,238,241,27,200,179,178,167,72,167,40,196,212,118,66,214,129,154,227,21,174,42,29,129,237,11,73,248,31,173,84,27,11,8,61,239,254,203,6,29,74,251,242,222,173,71,231,150,40,68,222,51,129,89,96,208,235,41,127,255,47,168,255,75,254,51,66,72,56,33,12,139,176,127,16,80,43,202,16,22,237,240,27,22,53,144,209,42,48,37,21,74,4,254,244,189,127,246,233,178,190,200,39,68,15,180,59,224,169,104,164,202,105,37,129,75,135,226,21,175,242,129,225,46,98,28,175,186,203,172,240,82,178,208,183,28,63,227,243,235,192,127,235,36,255,249,23,53,249,129,7,34,52,227,168,0,15,243,169,193,46,233,7,23,132,41,8,191,2,129,222,83,225,23,192,184,211,197,208,234,196,129,216,40,4,224,179,251,240,15,173,39,218,235,16,222,251,22,171,228,39,42,220,99,53,29,52,192,127,238,69,45,11,220,0,254,190,182,213,17,192,86,212,59,217,118,217,129,179,20,250,253,20,19,212,250,46,127,247,251,50,174,41,254,255,129,47,23,236,5,94,69,205,223,236,240,97,244,254,38,231,26,127,243,38,67,3,205,253,151,26,218,186,249,224,12,113,61,49,129,217,92,231,216,15,3,21,99,16,67,41,4,26,129,6,247,92,25,213,223,226,21,195,196,239,231,20,226,162,22,41,218,30,127,124,227,113,207,80,27,231,251,64,247,31,251,0,191,127,226,13,209,9,158,37,12,11,243,8,17,0,6,254,15,175,223,6,56,129,199,13,69,152,119,184,10,202,219,220,182,87,1,60,175,27,127,50,11,88,0,170,50,21,155,162,103,27,228,70,22,14,127,249,62,190,253,48,189,79,26,65,1,65,179,235,200,129,221,221,72,251,255,254,42,54,217,104,20,216,25,54,151,207,163,246,127,217,47,204,212,215,127,224,198,190,17,16,44,153,196,254,72,68,169,127,45,179,37,2,53,198,9,199,129,15,236,45,246,51,22,47,212,32,22,198,13,101,33,201,46,127,252,248,177,51,163,231,3,195,69,17,212,180,197,59,168,129,231,142,217,217,55,29,163,4,19,178,100,212,182,227,23,199,131,129,51,230,9,65,129,222,125,129,234,229,90,221,170,43,1,155,152,231,112,216,219,99,29,234,90,247,143,67,16,36,13,201,66,26,192,129,148,184,200,233,251,0,28,127,218,37,5,12,43,7,228,195,2,237,3,247,15,246,254,220,45,59,40,43,86,182,68,127,234,247,216,49,129,235,68,50,50,56,57,235,251,48,86,22,27,251,181,53,198,218,107,5,46,10,235,127,72,46,14,217,10,222,171,234,202,41,182,197,239,75,249,240,10,90,2,129,232,43,157,238,223,216,25,208,0,239,44,129,42,220,234,178,121,134,215,178,127,234,183,180,232,134,31,176,242,59,192,226,231,217,129,177,43,251,215,208,236,212,20,178,233,215,15,197,194,231,18,24,211,120,207,59,59,20,233,232,33,250,2,91,186,129,252,41,127,159,211,208,222,164,45,132,238,158,218,188,34,160,172,242,253,14,236,200,13,183,56,129,235,17,226,228,161,255,242,154,40,46,20,129,21,211,36,217,1,22,215,4,253,252,210,9,74,237,214,244,243,195,42,129,185,226,72,215,157,143,212,129,76,9,165,212,50,194,63,139,244,28,192,3,233,21,184,129,19,201,205,200,199,180,56,176,213,241,6,220,207,215,192,9,52,13,176,235,43,200,114,246,129,9,49,216,237,231,85,53,218,239,71,42,42,127,188,68,73,52,37,210,70,33,164,238,43,130,166,214,210,53,96,166,101,210,202,250,204,129,47,69,171,14,51,97,42,105,139,60,59,127,2,115,37,76,130,165,255,255,4,0,0,0,0,8,0,0,212,231,25,26,245,86,186,70,176,31,124,79,191,22,164,26,127,208,41,41,7,93,225,204,23,46,70,203,249,173,35,110,35,129,212,75,37,193,56,66,242,134,231,49,31,202,142,12,47,41,155,158,205,101,59,196,248,193,189,73,58,43,67,208,127,187,86,250,60,224,186,150,208,246,227,166,151,38,211,158,32,14,100,9,210,212,67,198,249,199,4,48,86,212,195,17,137,217,204,207,188,248,1,57,211,225,190,206,69,188,201,0,184,127,164,179,46,161,215,114,13,211,45,254,2,134,194,118,12,156,204,131,250,214,8,253,17,110,187,165,187,216,5,182,56,152,239,107,22,129,120,162,114,17,181,177,215,111,9,237,225,26,51,30,4,9,23,38,127,176,246,204,154,252,164,1,82,100,240,186,20,46,27,104,244,165,164,125,26,19,72,10,9,243,121,129,206,220,146,238,112,65,42,3,210,207,240,174,206,176,234,192,122,14,64,255,242,98,218,195,221,193,30,183,15,253,243,130,46,214,170,175,65,231,129,138,171,246,34,12,135,148,65,255,95,197,64,34,45,50,254,160,24,238,85,175,158,250,186,75,44,51,80,233,16,225,251,40,243,228,130,73,20,78,167,180,129,69,215,96,171,207,27,254,108,208,217,42,1,129,245,249,83,58,25,23,74,76,8,25,184,4,51,169,21,54,17,227,1,33,1,232,79,34,26,74,79,52,222,245,134,252,188,3,165,112,76,182,193,253,251,75,67,32,7,200,70,232,59,193,206,184,188,7,23,158,226,247,6,226,21,127,5,188,62,154,71,17,160,54,7,57,254,129,163,110,169,146,129,14,1,10,109,16,76,221,99,90,30,205,237,68,252,62,118,167,181,133,127,168,48,95,22,162,24,249,148,53,42,29,46,229,240,71,47,10,204,64,28,44,135,7,11,238,172,188,223,18,201,80,133,2,94,127,215,154,56,62,87,36,221,61,64,57,183,43,41,51,214,235,224,11,114,66,192,208,60,215,127,220,27,203,71,239,189,220,235,32,6,190,156,45,46,226,181,151,80,226,251,225,62,233,23,207,154,42,185,89,39,152,184,107,151,3,199,34,96,89,168,207,114,216,22,226,172,106,70,99,138,24,193,1,191,243,129,191,221,215,25,203,228,10,178,232,233,253,133,92,104,228,214,221,91,82,53,146,18,49,64,205,166,156,200,245,194,80,169,129,92,209,179,206,48,0,5,195,16,162,127,185,197,212,53,153,236,17,18,235,13,38,238,218,19,46,49,181,46,56,37,241,5,95,194,51,59,231,68,225,254,198,28,169,186,252,66,246,171,220,197,43,28,228,197,7,35,255,72,244,247,30,127,26,208,222,37,75,12,246,101,245,148,231,29,205,23,170,20,153,5,220,16,129,96,236,117,24,160,221,190,34,9,104,190,114,240,193,221,230,78,143,125,219,111,185,106,13,43,227,36,68,222,158,242,127,102,27,35,39,124,211,20,58,20,5,115,22,12,161,61,217,197,149,74,2,109,150,38,217,40,243,109,17,129,178,200,10,241,172,228,200,249,43,61,252,68,28,86,47,208,229,238,31,57,237,225,51,46,226,129,253,20,190,19,223,173,85,199,82,214,34,16,103,72,31,64,230,100,3,157,53,40,162,120,10,60,197,51,176,0,238,40,214,225,187,8,78,129,192,199,8,65,14,233,3,5,87,90,181,37,244,86,33,197,227,234,15,58,231,216,227,19,42,183,85,105,49,31,12,43,88,45,188,145,29,103,66,164,224,186,48,209,70,186,222,77,127,54,153,234,49,23,251,38,156,57,211,252,180,19,45,251,253,238,54,106,193,174,166,38,225,4,243,108,197,127,36,220,254,210,17,230,203,153,35,57,108,14,1,23,78,246,186,35,236,22,143,196,253,69,16,135,129,211,1,164,5,245,192,4,79,79,185,213,82,43,35,170,250,234,42,236,95,24,23,250,175,42,150,201,226,26,40,215,190,17,225,147,68,129,58,240,210,116,145,57,107,180,29,159,98,212,77,41,242,65,35,94,35,87,203,179,227,117,204,20,149,239,127,44,230,193,179,229,76,111,244,204,101,220,36,170,85,252,14,213,58,35,224,86,59,82,196,216,17,109,38,144,16,242,127,233,230,232,147,19,50,245,45,59,245,44,8,62,45,3,31,173,62,127,175,135,21,35,29,242,177,164,226,197,251,66,153,94,182,64,90,35,172,174,226,47,20,34,70,242,119,208,2,121,230,147,201,248,96,20,170,154,226,9,72,219,22,182,127,232,247,255,177,8,39,23,191,5,89,188,32,215,112,183,85,246,129,200,154,66,18,180,149,213,242,255,92,99,86,82,225,53,161,16,21,51,85,213,223,167,225,99,30,228,145,157,53,150,169,207,188,182,127,60,233,126,81,52,177,245,52,140,61,152,233,200,221,201,133,32,107,194,45,230,100,2,230,8,247,0,26,107,165,174,141,227,159,232,47,170,118,62,129,126,218,82,86,206,47,241,135,224,227,71,91,243,78,30,216,175,9,16,9,228,183,203,127,70,226,216,178,62,179,86,52,37,248,141,29,29,45,213,170,30,133,104,15,48,62,25,100,136,32,174,126,171,186,79,229,98,50,149,161,47,198,37,12,64,28,159,100,6,90,209,38,26,129,91,142,64,202,201,42,38,62,182,117,106,253,208,104,198,129,192,105,42,150,42,50,134,172,89,184,62,179,189,63,190,88,163,160,51,67,78,19,160,25,10,60,45,129,45,105,182,34,40,219,84,125,58,218,31,108,149,121,161,182,99,122,74,140,78,242,42,123,187,64,219,4,248,23,145,55,243,213,204,229,45,234,127,33,142,170,220,41,219,206,9,244,127,100,150,29,247,120,253,15,31,64,7,0,127,251,3,211,166,193,43,75,247,52,16,49,182,214,33,184,137,103,254,45,60,92,178,195,35,41,40,86,23,219,247,23,90,89,137,26,178,92,7,16,76,149,82,241,56,61,16,207,227,31,129,20,247,148,203,159,51,95,63,115,246,10,221,191,174,169,129,44,55,218,237,56,246,185,68,191,182,46,245,158,65,227,200,222,2,182,43,223,159,74,181,98,146,102,94,169,246,45,45,141,14,221,70,13,203,78,253,98,221,182,129,63,35,203,27,206,177,245,23,222,89,22,250,20,32,223,196,52,129,141,174,100,44,47,10,54,196,67,86,242,167,245,95,191,3,209,187,40,99,154,21,34,27,248,193,200,222,105,22,9,36,110,133,14,192,37,127,239,82,56,191,66,60,164,176,67,231,234,245,212,234,192,98,255,174,143,57,96,144,67,97,127,199,1,235,169,238,247,149,88,92,97,107,67,175,204,39,18,193,20,224,247,123,229,20,77,110,255,45,50,44,21,145,100,129,18,164,102,23,106,17,252,167,14,152,184,242,71,147,109,32,107,130,80,242,28,185,53,232,2,210,76,250,18,173,63,82,112,9,199,74,19,127,248,199,71,20,42,189,252,235,51,219,18,15,134,52,9,96,22,50,46,22,28,125,26,83,159,27,217,102,216,129,11,250,30,32,148,166,60,83,28,251,179,202,209,89,93,211,203,255,208,249,16,94,15,226,139,5,209,190,218,16,255,254,159,217,54,89,59,189,237,18,15,5,240,83,23,127,48,191,221,19,104,239,148,186,65,174,40,148,127,19,82,146,7,25,57,22,166,211,117,87,251,225,189,228,18,137,54,137,183,29,18,50,220,189,82,127,157,241,176,229,253,12,19,246,250,223,11,249,42,75,45,237,15,99,228,229,246,122,228,12,3,209,241,249,43,31,178,67,194,78,226,26,166,219,227,77,213,177,226,218,106,57,193,177,255,79,250,44,238,79,35,127,99,179,7,184,10,22,232,188,76,1,12,193,16,57,37,243,76,94,0,47,199,168,127,54,28,11,201,250,17,212,224,27,250,76,251,61,217,181,4,15,212,36,182,73,185,182,195,229,34,223,146,147,38,229,65,174,239,127,54,44,142,45,22,107,42,219,216,254,3,2,6,235,70,242,78,165,50,79,110,210,32,68,26,52,153,151,58,115,67,199,200,206,80,129,67,241,209,79,33,59,219,240,17,43,4,86,203,73,243,170,244,26,230,152,187,129,249,41,78,26,11,98,251,60,151,89,177,76,40,44,53,207,221,97,172,164,219,192,226,174,75,34,245,208,26,70,47,105,228,211,115,28,98,161,242,192,95,129,39,238,167,24,54,10,163,5,44,241,24,172,29,144,15,56,223,148,121,91,20,94,233,202,127,17,45,37,199,8,34,227,207,150,179,40,243,1,252,199,53,20,239,142,195,235,84,102,87,138,65,88,106,41,156,14,56,80,13,212,32,2,222,5,4,195,28,127,49,27,206,254,235,196,20,229,41,224,9,3,2,14,129,240,5,12,197,227,156,59,217,138,42,254,62,250,67,250,188,31,38,180,172,246,48,61,16,253,146,13,214,136,23,99,231,39,245,180,58,101,238,240,1,55,127,2,216,79,253,16,253,179,177,9,87,219,245,167,212,153,112,191,82,91,116,16,237,83,223,55,206,183,25,81,47,129,170,2,250,25,252,3,227,47,246,34,20,251,49,142,173,255,255,4,0,0,0,0,1,0,0,30,205,26,189,242,94,251,187,9,100,106,188,31,101,131,60,24,224,27,189,215,159,220,58,209,40,218,187,138,177,203,59,203,125,137,61,152,159,147,60,207,30,164,60,121,229,84,60,108,206,133,187,255,32,73,189,66,135,75,189,25,113,123,189,85,112,111,63,173,14,126,63,177,129,108,63,235,74,132,63,149,230,113,63,239,104,126,63,213,224,122,63,91,86,118,63,26,90,135,63,222,188,110,63,214,252,133,63,241,105,128,63,59,193,119,63,238,46,116,63,103,63,113,63,78,155,112,63,44,192,18,186,6,3,145,59,202,52,145,185,55,93,189,188,67,220,248,58,198,173,6,59,248,132,156,186,40,255,235,186,113,119,167,188,197,132,11,188,97,225,89,60,58,132,105,188,46,29,6,59,44,32,110,186,96,30,19,57,243,120,94,186,21,253,49,189,211,37,40,188,35,3,205,188,3,194,163,188,116,72,11,189,177,75,179,188,88,238,244,187,226,38,156,59,168,35,18,61,51,27,89,60,86,161,85,59,66,178,221,187,162,164,47,188,233,25,63,189,240,48,74,189,164,198,97,189,184,156,255,255,188,156,255,255,192,156,255,255,196,156,255,255,200,156,255,255,204,156,255,255,208,156,255,255,212,156,255,255,216,156,255,255,220,156,255,255,224,156,255,255,228,156,255,255,232,156,255,255,236,156,255,255,240,156,255,255,244,156,255,255,248,156,255,255,252,156,255,255,0,157,255,255,4,157,255,255,8,157,255,255,12,157,255,255,16,157,255,255,20,157,255,255,24,157,255,255,28,157,255,255,32,157,255,255,36,157,255,255,40,157,255,255,44,157,255,255,48,157,255,255,52,157,255,255,56,157,255,255,60,157,255,255,64,157,255,255,68,157,255,255,72,157,255,255,76,157,255,255,80,157,255,255,54,175,255,255,4,0,0,0,0,16,0,0,204,71,149,65,139,47,37,52,187,35,61,100,43,5,189,127,79,24,194,197,202,22,197,2,171,221,62,62,36,238,200,36,234,207,27,4,127,30,252,233,48,232,238,238,189,15,36,198,240,254,45,11,33,187,246,63,82,253,252,248,214,7,26,252,255,197,64,203,91,186,249,228,127,231,178,243,221,238,190,207,14,237,231,240,6,169,6,248,46,3,208,254,248,14,66,15,55,243,241,39,28,20,76,40,6,235,113,252,238,229,200,51,26,94,247,237,200,79,212,250,208,129,75,49,18,206,232,40,85,235,1,242,211,23,204,186,204,82,82,63,34,182,3,127,1,10,60,51,43,178,65,247,255,229,34,168,40,127,213,41,233,103,194,13,156,80,32,34,129,51,92,84,25,201,178,71,46,40,223,186,204,27,159,1,148,222,80,41,46,213,194,62,214,183,57,54,23,13,65,54,50,155,16,43,63,210,148,238,44,89,169,199,129,11,177,74,235,239,38,121,77,152,72,97,24,206,61,225,97,194,216,193,94,199,129,188,20,35,21,187,199,244,57,12,82,176,67,43,109,16,168,206,202,249,72,9,118,35,177,158,225,182,189,38,129,114,85,45,189,52,65,61,57,25,30,32,36,252,25,0,234,244,11,177,33,31,159,209,32,38,250,249,31,176,245,246,17,9,13,38,17,29,48,50,67,255,3,57,129,37,6,218,10,251,49,56,253,227,220,6,216,213,21,244,209,202,1,147,250,88,6,203,194,28,44,127,240,167,44,90,76,142,56,167,1,238,16,1,31,245,187,135,49,189,84,190,77,211,9,184,51,202,211,187,209,75,22,209,215,4,40,51,70,156,60,2,37,68,129,225,215,46,83,241,242,252,204,54,214,69,16,49,164,230,71,56,36,192,0,47,68,102,192,129,192,42,161,25,155,178,61,67,43,194,223,52,215,71,129,38,130,40,29,69,150,64,76,109,76,130,212,101,11,10,208,226,197,39,214,189,165,5,120,48,12,233,164,245,150,89,209,80,129,32,252,77,135,243,44,81,43,228,243,80,76,49,201,220,209,65,225,6,184,208,106,57,0,240,235,25,250,178,66,64,122,176,61,63,1,73,110,113,120,35,153,5,18,61,38,17,246,91,13,129,151,130,159,253,246,189,86,176,26,155,77,222,95,212,254,138,93,187,153,198,37,28,41,154,205,9,48,66,96,155,54,34,66,77,129,193,191,255,53,216,172,91,177,51,158,34,30,92,146,12,62,48,15,198,203,127,19,59,146,218,228,74,255,233,162,190,99,15,74,233,238,29,252,129,104,231,242,61,68,217,105,140,238,230,249,249,14,213,235,38,236,44,36,254,18,29,89,205,0,2,238,218,120,40,233,148,77,252,61,2,39,41,127,218,252,249,14,6,255,28,44,76,209,219,12,9,227,87,42,222,240,254,30,193,67,85,87,186,123,219,64,175,208,170,107,252,175,184,233,68,68,222,161,0,55,61,88,174,47,39,127,59,194,190,239,37,79,225,7,220,50,243,9,216,197,209,41,33,60,22,81,33,14,24,200,13,2,249,201,250,61,127,88,230,11,238,250,35,47,217,22,154,113,224,78,221,7,180,97,165,230,129,247,19,12,132,185,7,6,246,7,199,6,89,112,53,196,13,226,253,59,15,219,226,11,40,37,62,79,93,211,209,1,42,66,202,215,17,21,24,172,242,153,54,216,61,163,129,90,102,202,208,95,70,231,106,172,29,129,38,42,28,174,58,56,79,51,231,196,81,60,18,246,17,187,42,240,255,201,208,104,254,66,252,223,14,73,161,107,228,102,215,3,129,75,216,204,208,236,37,9,148,188,236,95,53,32,3,40,26,56,62,165,223,206,217,59,196,56,129,51,0,216,16,203,139,49,42,229,21,30,216,204,37,3,2,152,243,36,173,222,19,41,3,40,196,246,255,16,231,92,210,27,9,35,50,215,245,89,172,129,171,207,54,61,201,205,253,16,8,11,159,9,76,84,13,191,228,9,224,78,141,8,232,140,39,159,253,7,12,217,16,30,173,17,196,129,165,37,7,242,205,175,58,199,34,3,196,11,29,16,184,119,13,135,235,54,86,1,107,106,72,6,188,40,29,107,176,153,215,127,17,157,163,199,46,136,101,231,189,30,11,40,174,84,95,230,94,196,145,220,63,11,203,15,97,81,15,219,254,18,242,220,254,2,238,249,151,236,185,129,43,1,228,39,227,118,43,183,113,175,37,155,30,122,40,167,210,64,82,89,129,226,85,91,59,219,167,144,53,234,21,146,167,92,23,88,13,227,70,168,2,199,31,169,254,30,43,199,189,91,59,231,201,243,85,60,240,220,137,200,127,218,67,254,188,9,45,20,159,12,56,244,26,1,57,32,98,58,127,44,0,33,11,55,193,162,85,45,29,217,210,158,46,148,96,216,166,81,51,10,180,51,45,19,195,127,250,16,143,234,239,46,25,213,133,215,55,254,169,74,14,98,74,230,170,251,65,81,234,42,22,114,23,158,122,193,145,202,85,212,73,76,59,7,247,36,83,24,239,182,246,251,62,175,1,174,86,129,112,212,134,13,88,240,191,97,102,143,26,251,54,254,91,53,78,11,19,35,45,122,192,145,224,127,106,207,171,183,114,156,72,194,181,96,97,72,179,46,73,129,64,197,42,252,35,24,60,190,211,238,36,197,244,204,215,3,48,14,26,220,29,233,9,240,174,7,225,14,204,249,242,221,240,247,22,204,60,90,64,254,253,10,49,27,209,187,16,49,87,174,233,129,47,234,63,235,175,60,49,250,159,247,73,199,235,7,222,73,240,50,24,127,21,249,230,74,253,40,243,227,104,11,32,203,151,65,191,100,205,232,64,253,12,253,189,177,252,211,29,227,113,84,45,245,8,23,93,49,198,184,28,127,66,155,145,205,76,181,74,206,147,78,111,24,229,11,20,228,243,21,9,55,26,26,29,119,170,46,4,67,189,209,199,107,81,129,202,199,61,253,113,19,13,41,69,17,186,112,45,221,29,160,110,135,104,77,58,205,91,7,7,127,184,205,103,94,73,191,207,133,75,198,3,2,0,109,53,4,27,209,32,4,237,233,187,73,176,142,0,20,44,188,241,208,96,226,45,208,186,194,127,35,43,40,163,30,158,188,250,249,73,12,192,13,129,45,45,36,22,60,84,82,175,245,113,250,6,225,175,189,39,203,196,176,55,248,63,194,227,85,174,26,176,31,37,247,14,56,202,208,32,98,102,129,184,233,73,212,146,233,58,68,80,154,132,161,68,250,34,240,210,217,245,165,184,234,91,1,141,68,203,240,46,36,37,48,230,202,26,10,228,255,251,127,74,245,81,190,242,142,63,181,183,146,36,112,51,227,13,154,153,207,245,224,248,232,83,42,63,2,40,239,191,169,98,98,4,234,41,220,29,129,12,188,151,8,65,207,235,228,9,79,74,44,234,3,234,151,231,127,249,36,250,254,243,32,186,232,248,193,58,74,199,245,199,17,235,201,48,171,250,193,193,34,170,21,33,1,34,59,73,8,129,222,222,67,214,141,14,113,245,185,176,15,212,163,55,254,185,86,16,217,163,6,112,225,182,80,96,53,232,50,19,0,208,246,31,23,210,163,208,66,38,144,193,237,52,225,99,0,208,33,74,25,214,127,70,242,184,72,9,254,253,12,53,32,177,196,237,63,25,224,199,20,81,175,208,129,24,162,42,250,169,7,72,5,234,61,37,232,21,5,217,4,129,205,57,225,50,222,242,178,43,72,253,221,25,16,28,73,197,18,224,88,107,253,198,241,118,63,154,0,189,184,76,255,18,230,70,36,163,25,252,17,179,207,7,54,36,154,211,179,73,222,54,200,12,230,32,211,180,81,127,28,74,191,245,93,129,158,162,3,47,220,217,59,249,31,7,200,216,6,252,49,36,159,238,53,173,23,60,215,223,29,14,208,190,1,14,28,52,22,36,11,176,31,83,102,230,231,229,54,127,213,210,228,44,169,38,204,197,65,32,18,161,53,20,155,61,195,253,166,73,121,114,230,172,16,193,54,205,184,83,30,80,165,210,8,110,142,127,181,246,63,101,24,229,196,42,255,0,234,57,43,244,184,200,19,201,217,48,129,225,190,204,162,190,72,244,249,222,247,54,17,26,242,241,20,119,210,214,29,190,84,252,222,188,39,127,42,173,235,80,35,133,149,242,227,36,47,252,10,11,168,69,33,229,82,37,186,164,54,250,20,80,7,246,72,221,202,210,63,144,212,227,138,80,204,242,238,223,236,75,235,38,74,82,24,103,129,156,86,11,244,210,253,29,127,21,31,254,69,224,119,39,236,241,182,19,17,218,89,30,212,147,44,222,32,55,232,191,20,202,242,204,197,158,235,225,232,28,253,58,91,100,23,187,53,78,67,129,168,222,68,39,133,233,194,66,188,80,22,192,12,109,2,192,85,75,195,253,0,99,23,104,110,94,249,235,32,40,68,176,144,249,12,127,179,194,203,62,187,237,231,167,50,38,4,207,21,113,234,204,230,10,39,85,104,79,240,209,4,0,79,235,150,1,33,74,246,200,19,112,233,107,200,234,29,127,236,206,244,45,3,241,246,129,69,233,208,148,197,193,167,117,225,25,219,52,54,91,78,167,52,222,37,217,104,194,199,232,60,226,19,4,221,17,13,253,45,232,194,202,250,18,73,185,214,4,231,30,129,13,29,248,240,205,40,180,229,5,185,170,34,37,1,179,224,152,199,0,120,36,111,238,55,156,29,178,32,171,38,65,92,61,144,248,241,26,154,60,245,129,31,50,254,0,232,47,210,100,214,76,225,20,27,54,161,77,42,13,18,215,22,34,228,237,45,39,109,47,0,175,0,184,20,18,40,249,129,40,34,227,255,8,215,255,249,127,111,197,21,39,31,6,10,183,56,202,58,165,225,39,190,42,244,188,247,44,105,210,249,19,213,13,217,9,155,187,203,65,129,103,34,195,43,238,247,38,252,220,70,5,25,179,212,23,51,233,169,145,2,206,129,143,137,43,225,65,173,21,59,34,243,221,69,231,76,8,153,76,231,102,179,232,190,91,129,76,145,208,15,36,236,242,75,64,195,66,204,12,141,6,0,38,157,225,127,24,40,204,109,250,13,154,91,254,208,116,7,172,231,47,27,183,238,19,214,48,207,20,228,68,235,57,38,19,68,163,49,20,37,212,184,205,31,252,129,182,240,71,20,18,35,196,100,30,239,187,20,58,238,149,50,205,114,234,252,246,1,225,44,237,39,56,73,2,202,189,14,179,77,231,172,191,127,80,227,233,49,63,8,228,22,237,244,207,194,206,24,129,159,242,216,131,37,35,32,214,9,156,57,92,88,169,18,196,192,237,186,143,248,35,16,5,69,54,44,129,254,252,0,244,213,59,241,88,39,105,62,23,148,153,60,221,29,227,0,17,48,14,36,189,190,97,226,248,193,38,3,250,13,32,8,211,222,252,6,254,85,4,9,129,251,3,234,167,8,241,255,222,13,0,235,48,233,15,204,72,23,215,209,180,136,221,14,253,191,170,119,36,232,4,176,45,171,240,213,179,91,237,17,121,13,162,23,113,70,187,127,212,205,26,63,204,253,64,5,4,222,28,30,6,176,238,170,36,185,33,223,10,36,248,208,190,233,53,127,138,179,28,240,188,232,218,39,62,78,67,129,215,69,233,3,189,247,69,222,186,24,247,229,203,226,233,20,172,83,154,160,219,220,45,241,64,11,92,64,210,9,148,83,129,161,208,12,55,177,186,19,31,215,81,248,233,32,217,192,221,249,28,208,65,26,206,54,2,189,19,81,6,236,4,248,43,255,240,245,72,18,175,206,250,58,30,205,7,233,92,132,248,48,223,254,96,127,244,234,217,34,223,62,3,81,216,233,199,253,25,197,247,247,127,221,177,230,195,222,251,30,194,53,224,101,230,40,250,95,10,42,214,19,37,22,53,102,250,129,234,4,227,162,28,255,242,36,81,186,97,108,165,15,184,108,223,227,192,48,230,252,35,225,224,65,156,228,41,110,164,97,14,106,250,13,60,105,40,228,59,40,222,186,183,153,249,238,237,238,80,206,129,28,191,57,185,221,116,197,83,229,49,44,201,196,73,127,70,205,206,23,49,50,199,32,113,15,13,217,17,10,28,207,207,172,198,228,7,127,140,228,213,250,187,31,213,95,204,13,240,25,122,243,60,33,158,255,214,248,194,180,192,83,4,64,205,2,29,30,232,219,193,221,114,246,34,90,91,185,228,84,37,10,240,79,44,43,5,205,219,160,229,151,34,236,189,3,37,248,129,98,19,159,251,223,173,24,230,14,187,122,230,0,21,19,37,32,176,227,78,234,11,10,81,129,60,0,23,225,170,220,247,32,42,74,179,101,248,8,196,15,88,205,203,208,220,93,242,217,238,29,45,253,41,55,241,221,79,160,200,13,224,62,127,205,212,224,36,235,205,17,192,28,248,235,243,220,31,51,246,50,21,129,189,22,1,31,2,8,246,245,33,241,216,48,203,228,23,189,251,42,83,205,243,49,43,161,63,127,251,229,248,234,18,39,36,212,32,26,190,246,51,196,37,66,251,246,43,173,31,0,217,203,55,55,172,127,90,63,225,1,18,167,57,81,198,234,176,54,239,66,207,41,212,44,7,233,44,14,35,61,66,64,248,139,241,37,187,228,225,13,241,7,229,241,68,51,142,153,222,232,127,56,247,17,171,40,1,23,183,85,45,215,135,228,34,30,83,129,107,83,42,216,245,42,9,57,6,177,35,233,8,238,162,28,66,43,26,167,206,6,68,16,216,253,44,227,239,252,35,169,255,13,225,187,175,11,248,246,237,203,243,88,72,224,191,177,127,184,190,18,216,110,8,201,221,7,19,222,62,197,36,179,48,64,44,161,42,78,54,53,185,212,127,26,57,232,198,211,46,196,62,214,203,74,30,83,198,249,43,45,176,76,206,62,4,56,12,89,23,195,234,185,48,251,254,29,48,108,34,214,129,12,154,40,39,11,249,59,20,7,232,5,10,46,252,237,160,240,236,9,89,222,129,254,220,8,248,27,81,14,228,94,136,22,0,106,70,240,7,5,196,97,71,207,230,127,2,30,20,8,25,61,229,240,232,6,243,253,48,28,7,234,0,211,67,141,63,196,209,39,208,206,21,105,100,252,88,203,22,210,254,255,211,187,75,65,32,11,232,174,58,240,5,33,248,198,218,229,233,209,244,252,248,14,6,129,207,189,90,213,228,222,25,77,57,155,231,127,104,60,204,0,66,30,4,204,199,132,230,252,115,161,141,116,32,232,201,176,52,175,129,94,23,83,9,50,32,97,172,255,17,40,239,219,134,33,53,228,234,217,225,228,97,14,222,218,51,217,221,97,13,50,144,127,183,94,201,229,246,111,184,210,196,237,66,15,172,219,220,65,21,51,208,49,251,67,55,215,20,203,64,74,208,253,74,134,19,211,32,15,250,142,67,69,73,229,255,214,91,80,7,206,0,186,45,232,237,199,246,76,247,14,36,129,31,37,25,127,58,56,53,209,244,47,240,179,26,252,69,87,255,249,235,253,32,0,242,195,230,52,2,209,10,19,255,15,239,140,32,211,24,132,208,221,215,163,6,236,46,201,69,28,75,9,229,103,19,209,7,34,224,176,33,98,20,249,185,240,127,22,129,65,186,245,200,247,158,92,62,184,214,190,46,58,150,181,0,55,242,72,230,51,6,80,10,192,200,224,18,24,228,183,236,20,33,212,202,127,24,226,201,40,30,6,2,227,11,97,47,206,206,214,42,192,46,243,211,57,38,251,247,40,183,2,82,188,31,176,34,82,237,197,54,36,113,244,226,217,92,59,3,7,9,248,40,195,251,183,245,127,72,17,218,205,44,0,82,189,23,156,43,58,91,174,21,93,99,12,33,199,127,113,100,201,168,196,107,234,235,73,166,75,244,242,68,215,18,230,42,227,46,166,43,39,49,4,203,49,127,32,173,248,6,1,9,175,23,232,47,197,247,189,201,0,248,55,36,208,51,31,152,59,178,113,217,209,176,90,227,183,192,192,44,45,129,176,225,45,61,66,136,41,29,64,26,201,237,231,77,65,243,240,98,182,58,129,221,20,61,249,52,58,93,21,204,214,96,55,56,252,170,216,23,168,25,172,181,76,33,241,239,236,41,27,130,78,255,127,200,249,196,106,189,180,204,248,55,247,196,223,18,37,18,37,234,28,73,86,33,182,238,211,33,55,7,237,156,127,250,45,206,240,251,99,205,238,239,17,16,16,214,9,18,187,252,25,23,41,118,240,212,227,53,3,193,54,29,17,158,36,188,81,198,202,196,127,207,195,154,202,33,36,186,187,214,53,30,47,199,47,254,88,27,243,210,231,12,11,215,235,179,82,129,77,40,250,227,43,253,226,16,23,95,224,226,209,214,209,30,228,247,218,24,113,224,212,62,240,4,64,32,10,183,79,234,127,218,10,208,82,239,172,214,251,27,33,166,236,223,241,255,35,0,20,20,28,14,224,244,227,10,72,229,157,172,226,37,27,40,38,79,16,17,76,65,83,194,203,38,61,249,176,129,138,67,14,35,171,232,21,58,15,222,251,38,186,32,158,70,129,66,8,84,160,72,74,125,33,159,171,106,88,33,236,253,183,75,200,230,166,161,90,35,31,248,188,63,23,129,89,246,107,203,6,196,111,205,144,202,202,30,74,179,133,5,2,9,27,219,50,26,116,70,137,250,223,18,26,237,78,130,100,241,69,253,20,151,88,8,53,249,228,50,229,157,21,66,78,5,81,231,57,105,72,20,217,27,2,68,127,32,31,183,86,219,92,202,248,3,73,180,220,218,7,94,11,129,219,205,57,253,65,202,33,253,110,25,129,187,158,3,34,173,197,241,2,230,29,28,223,50,241,226,71,59,48,70,183,248,5,43,229,38,45,219,18,246,245,9,31,240,39,129,229,80,200,129,65,10,54,33,0,10,83,141,10,7,31,216,234,221,60,85,7,217,212,40,229,52,19,250,26,84,4,209,126,22,208,225,240,236,33,32,237,18,129,237,236,57,251,139,186,75,96,241,209,235,12,71,229,51,204,24,45,196,96,172,179,12,181,237,223,34,209,50,49,59,224,219,20,93,56,7,211,46,85,91,143,168,205,48,180,57,188,37,127,52,21,169,245,90,66,191,255,255,4,0,0,0,0,2,0,0,201,134,16,190,118,238,82,60,253,45,30,189,161,253,200,61,2,42,10,61,67,61,182,189,105,1,163,189,183,103,171,189,235,3,39,60,132,86,20,61,129,132,36,60,144,159,94,190,60,56,66,62,238,42,158,189,57,235,184,189,195,146,51,189,134,35,61,190,173,105,7,190,119,37,3,62,222,220,135,61,125,26,139,190,121,101,75,61,92,164,111,189,103,218,114,187,56,1,138,60,111,111,80,190,78,247,146,188,253,99,136,61,248,11,227,61,110,124,39,62,153,136,107,62,172,62,1,59,158,198,80,190,2,229,32,62,58,45,218,62,9,124,219,189,1,133,211,190,15,1,221,190,9,189,126,190,94,186,168,62,187,8,202,190,47,126,158,190,195,142,156,190,117,111,230,62,100,206,113,190,249,137,193,190,254,199,196,190,47,154,186,189,243,179,182,61,3,143,164,190,96,67,98,190,26,176,196,187,229,175,195,62,30,175,23,62,251,36,54,61,39,69,138,61,78,175,244,190,18,95,140,62,66,53,57,189,180,37,7,61,185,74,195,188,121,216,208,190,179,17,190,190,18,140,28,190,71,216,104,62,173,72,247,189,103,29,64,62,97,113,206,189,238,160,58,62,181,81,137,190,230,47,119,190,163,113,108,190,13,189,67,62,32,6,74,189,251,220,134,190,231,27,153,190,125,59,49,190,104,12,64,62,196,178,65,62,59,85,202,189,222,7,244,189,18,120,47,190,89,3,208,61,151,155,54,61,225,235,134,62,136,35,1,190,83,50,151,62,114,155,229,188,194,57,126,62,198,3,30,62,136,92,243,189,161,161,232,189,172,185,44,189,209,29,2,62,38,122,215,61,5,28,38,190,117,38,8,62,196,104,122,62,219,10,32,62,229,137,156,190,247,186,50,61,185,162,221,61,98,63,166,190,109,123,212,188,191,239,25,188,147,137,198,189,241,62,203,189,97,136,252,189,237,229,7,62,222,112,84,62,131,2,32,62,126,237,247,189,28,233,102,190,7,65,91,62,137,223,230,190,136,121,176,61,136,10,89,189,51,247,184,188,249,231,53,190,237,34,85,61,173,212,218,188,159,222,31,62,208,180,67,189,16,51,126,187,131,243,108,61,40,222,142,190,42,96,65,190,192,98,204,61,78,193,255,255,4,0,0,0,0,2,0,0,33,51,93,187,115,186,87,61,252,52,243,61,251,22,16,61,131,253,82,62,56,169,115,61,132,168,104,61,136,57,61,61,167,70,10,62,191,191,160,60,83,225,210,61,223,63,146,61,168,136,198,187,117,15,255,60,88,115,13,188,76,166,227,61,234,52,155,60,211,62,18,187,194,3,79,61,231,234,59,189,120,255,100,61,234,236,96,61,146,184,142,61,218,165,36,60,42,148,147,61,105,138,110,60,33,40,168,61,145,92,190,60,130,150,89,188,52,182,196,187,145,241,129,61,42,156,167,187,161,105,126,63,97,196,130,63,27,214,120,63,126,43,113,63,107,151,119,63,12,140,118,63,61,140,137,63,66,108,125,63,127,228,128,63,165,233,124,63,180,36,119,63,161,113,126,63,34,24,128,63,90,148,121,63,27,190,123,63,56,169,112,63,200,243,124,63,45,39,130,63,237,99,129,63,62,229,112,63,160,166,128,63,199,188,125,63,211,145,130,63,189,179,131,63,158,71,126,63,247,125,121,63,251,57,110,63,195,203,122,63,192,19,101,63,190,104,130,63,205,130,128,63,107,190,128,63,91,141,77,60,14,247,202,187,49,229,205,187,207,198,223,188,200,16,213,60,35,74,151,188,122,118,78,189,3,143,245,187,149,5,0,60,61,82,234,59,69,229,178,187,85,158,135,187,243,110,37,188,61,233,94,60,167,186,155,59,223,31,34,187,183,88,23,186,229,9,45,188,5,51,159,60,25,255,113,60,18,29,42,60,106,210,163,188,50,194,134,60,49,8,65,188,249,251,50,60,30,179,169,58,123,2,89,188,46,242,255,187,107,114,167,59,219,145,246,60,45,220,134,188,35,181,135,188,94,139,230,187,251,65,52,61,142,119,245,61,35,119,247,60,246,184,82,62,30,19,116,61,70,24,83,61,224,6,70,61,232,137,12,62,118,201,125,60,100,65,207,61,11,145,189,61,71,162,196,59,11,0,218,60,92,139,50,188,252,179,219,61,142,195,191,60,83,230,82,188,137,105,148,60,145,35,51,189,182,249,166,61,39,193,73,61,1,34,130,61,35,238,18,60,32,79,140,61,176,217,185,60,140,194,165,61,144,25,178,60,54,21,81,188,147,7,136,187,73,150,130,61,228,17,44,187,120,177,255,255,124,177,255,255,128,177,255,255,132,177,255,255,136,177,255,255,140,177,255,255,144,177,255,255,148,177,255,255,152,177,255,255,156,177,255,255,160,177,255,255,164,177,255,255,168,177,255,255,172,177,255,255,176,177,255,255,180,177,255,255,184,177,255,255,188,177,255,255,192,177,255,255,196,177,255,255,200,177,255,255,204,177,255,255,208,177,255,255,212,177,255,255,216,177,255,255,220,177,255,255,224,177,255,255,228,177,255,255,232,177,255,255,236,177,255,255,240,177,255,255,244,177,255,255,248,177,255,255,252,177,255,255,0,178,255,255,4,178,255,255,8,178,255,255,12,178,255,255,16,178,255,255,20,178,255,255,24,178,255,255,28,178,255,255,32,178,255,255,36,178,255,255,40,178,255,255,44,178,255,255,18,196,255,255,4,0,0,0,8,0,0,0,255,255,255,255,32,0,0,0,68,178,255,255,72,178,255,255,46,196,255,255,4,0,0,0,4,0,0,0,1,0,0,0,62,196,255,255,4,0,0,0,12,0,0,0,1,0,0,0,0,0,0,0,2,0,0,0,86,196,255,255,4,0,0,0,4,0,0,0,0,0,0,0,102,196,255,255,4,0,0,0,4,0,0,0,32,0,0,0,118,196,255,255,4,0,0,0,8,0,0,0,255,255,255,255,16,0,0,0,138,196,255,255,4,0,0,0,4,0,0,0,16,0,0,0,154,196,255,255,4,0,0,0,4,0,0,0,10,0,0,0,170,196,255,255,4,0,0,0,4,0,0,0,9,205,39,186,186,196,255,255,4,0,0,0,64,0,0,0,187,202,225,190,181,223,56,61,87,169,7,191,99,26,71,62,18,145,165,61,26,251,14,63,209,97,173,62,64,62,150,62,155,71,142,61,116,137,18,61,171,159,135,189,51,145,224,61,71,210,0,190,123,82,8,190,192,236,192,61,95,50,161,190,6,197,255,255,4,0,0,0,12,0,0,0,255,255,255,255,0,0,0,0,0,0,0,0,30,197,255,255,4,0,0,0,12,0,0,0,0,0,0,0,0,0,0,0,16,0,0,0,54,197,255,255,4,0,0,0,12,0,0,0,1,0,0,0,1,0,0,0,1,0,0,0,108,179,255,255,112,179,255,255,15,0,0,0,77,76,73,82,32,67,111,110,118,101,114,116,101,100,46,0,5,0,0,0,28,54,0,0,72,50,0,0,44,27,0,0,104,23,0,0,4,0,0,0,6,202,255,255,20,0,0,0,56,0,0,0,148,4,0,0,172,4,0,0,196,4,0,0,35,0,0,0,115,101,113,117,101,110,116,105,97,108,95,53,95,49,47,108,115,116,109,95,49,49,95,49,47,119,104,105,108,101,95,98,111,100,121,0,18,0,0,0,44,4,0,0,240,3,0,0,188,3,0,0,136,3,0,0,76,3,0,0,24,3,0,0,228,2,0,0,160,2,0,0,124,2,0,0,88,2,0,0,36,2,0,0,0,2,0,0,220,1,0,0,168,1,0,0,116,1,0,0,80,1,0,0,28,1,0,0,4,0,0,0,96,197,255,255,16,0,0,0,244,0,0,0,248,0,0,0,17,0,0,0,226,0,0,0,17,84,101,110,115,111,114,76,105,115,116,83,101,116,73,116,101,109,0,197,18,17,84,101,110,115,111,114,76,105,115,116,83,101,116,73,116,101,109,26,0,26,0,26,0,42,35,10,29,114,101,115,105,122,101,95,105,102,95,105,110,100,101,120,95,111,117,116,95,111,102,95,98,111,117,110,100,115,18,2,40,0,42,19,10,13,101,108,101,109,101,110,116,95,100,116,121,112,101,18,2,48,1,50,112,10,67,115,101,113,117,101,110,116,105,97,108,95,53,95,49,47,108,115,116,109,95,49,49,95,49,47,119,104,105,108,101,47,84,101,110,115,111,114,65,114,114,97,121,86,50,87,114,105,116,101,47,84,101,110,115,111,114,76,105,115,116,83,101,116,73,116,101,109,18,41,115,101,113,117,101,110,116,105,97,108,95,53,95,49,95,108,115,116,109,95,49,49,95,49,95,119,104,105,108,101,95,98,111,100,121,95,55,49,57,57,56,0,2,218,200,20,20,4,40,1,0,0,1,0,0,0,31,0,0,0,3,0,0,0,2,0,0,0,6,0,0,0,30,0,0,0,206,198,255,255,20,0,0,0,0,0,0,21,16,0,0,0,20,0,0,0,15,0,0,0,88,181,255,255,1,0,0,0,30,0,0,0,2,0,0,0,25,0,0,0,29,0,0,0,46,199,255,255,12,0,0,0,16,0,0,0,16,0,0,0,1,0,0,0,29,0,0,0,1,0,0,0,28,0,0,0,30,199,255,255,20,0,0,0,0,0,0,11,16,0,0,0,20,0,0,0,11,0,0,0,168,181,255,255,1,0,0,0,28,0,0,0,2,0,0,0,24,0,0,0,27,0,0,0,78,199,255,255,20,0,0,0,0,0,0,21,16,0,0,0,20,0,0,0,15,0,0,0,216,181,255,255,1,0,0,0,27,0,0,0,2,0,0,0,22,0,0,0,26,0,0,0,174,199,255,255,12,0,0,0,16,0,0,0,16,0,0,0,1,0,0,0,26,0,0,0,1,0,0,0,20,0,0,0,206,199,255,255,12,0,0,0,16,0,0,0,14,0,0,0,1,0,0,0,25,0,0,0,1,0,0,0,21,0,0,0,190,199,255,255,20,0,0,0,0,0,0,21,16,0,0,0,20,0,0,0,15,0,0,0,72,182,255,255,1,0,0,0,24,0,0,0,2,0,0,0,23,0,0,0,4,0,0,0,30,200,255,255,12,0,0,0,16,0,0,0,14,0,0,0,1,0,0,0,23,0,0,0,1,0,0,0,19,0,0,0,62,200,255,255,12,0,0,0,16,0,0,0,14,0,0,0,1,0,0,0,22,0,0,0,1,0,0,0,18,0,0,0,46,200,255,255,20,0,0,0,0,0,0,35,20,0,0,0,36,0,0,0,13,0,0,0,154,200,255,255,4,0,0,0,4,0,0,0,18,0,0,0,19,0,0,0,20,0,0,0,21,0,0,0,2,0,0,0,7,0,0,0,17,0,0,0,110,200,255,255,20,0,0,0,0,0,0,11,16,0,0,0,20,0,0,0,11,0,0,0,248,182,255,255,1,0,0,0,17,0,0,0,2,0,0,0,16,0,0,0,8,0,0,0,158,200,255,255,20,0,0,0,0,0,0,11,16,0,0,0,20,0,0,0,11,0,0,0,40,183,255,255,1,0,0,0,16,0,0,0,2,0,0,0,15,0,0,0,12,0,0,0,206,200,255,255,20,0,0,0,0,0,0,8,20,0,0,0,24,0,0,0,8,0,0,0,76,228,255,255,0,0,0,1,1,0,0,0,15,0,0,0,3,0,0,0,14,0,0,0,9,0,0,0,255,255,255,255,6,201,255,255,20,0,0,0,0,0,0,23,16,0,0,0,20,0,0,0,12,0,0,0,144,183,255,255,1,0,0,0,14,0,0,0,2,0,0,0,5,0,0,0,1,0,0,0,54,201,255,255,20,0,0,0,0,0,0,11,16,0,0,0,20,0,0,0,11,0,0,0,192,183,255,255,1,0,0,0,13,0,0,0,2,0,0,0,0,0,0,0,7,0,0,0,102,201,255,255,20,0,0,0,0,0,0,8,20,0,0,0,24,0,0,0,8,0,0,0,228,228,255,255,0,0,0,1,1,0,0,0,12,0,0,0,3,0,0,0,3,0,0,0,10,0,0,0,255,255,255,255,158,201,255,255,20,0,0,0,0,0,0,11,16,0,0,0,20,0,0,0,11,0,0,0,40,184,255,255,1,0,0,0,11,0,0,0,2,0,0,0,1,0,0,0,7,0,0,0,6,0,0,0,13,0,0,0,11,0,0,0,31,0,0,0,30,0,0,0,28,0,0,0,5,0,0,0,6,0,0,0,0,0,0,0,1,0,0,0,2,0,0,0,3,0,0,0,4,0,0,0,5,0,0,0,32,0,0,0,84,18,0,0,32,18,0,0,200,17,0,0,128,17,0,0,56,17,0,0,232,16,0,0,168,16,0,0,104,16,0,0,40,16,0,0,204,12,0,0,112,9,0,0,32,9,0,0,172,8,0,0,88,8,0,0,212,7,0,0,96,7,0,0,240,6,0,0,124,6,0,0,8,6,0,0,148,5,0,0,32,5,0,0,172,4,0,0,56,4,0,0,192,3,0,0,80,3,0,0,216,2,0,0,104,2,0,0,244,1,0,0,128,1,0,0,12,1,0,0,152,0,0,0,4,0,0,0,0,191,255,255,28,0,0,0,0,0,0,1,52,0,0,0,52,0,0,0,128,0,0,0,0,0,0,14,112,0,0,0,1,0,0,0,4,0,0,0,230,190,255,255,0,0,0,1,4,0,0,0,2,0,0,0,0,0,0,0,16,0,0,0,60,185,255,255,67,0,0,0,115,101,113,117,101,110,116,105,97,108,95,53,95,49,47,108,115,116,109,95,49,49,95,49,47,119,104,105,108,101,47,84,101,110,115,111,114,65,114,114,97,121,86,50,87,114,105,116,101,47,84,101,110,115,111,114,76,105,115,116,83,101,116,73,116,101,109,0,0,0,0,0,190,186,255,255,0,0,0,1,20,0,0,0,28,0,0,0,28,0,0,0,127,0,0,0,76,0,0,0,2,0,0,0,255,255,255,255,16,0,0,0,180,185,255,255,48,0,0,0,115,101,113,117,101,110,116,105,97,108,95,53,95,49,47,108,115,116,109,95,49,49,95,49,47,119,104,105,108,101,47,108,115,116,109,95,99,101,108,108,95,49,47,109,117,108,95,50,0,0,0,0,2,0,0,0,1,0,0,0,16,0,0,0,46,187,255,255,0,0,0,1,20,0,0,0,28,0,0,0,28,0,0,0,126,0,0,0,76,0,0,0,2,0,0,0,255,255,255,255,16,0,0,0,36,186,255,255,49,0,0,0,115,101,113,117,101,110,116,105,97,108,95,53,95,49,47,108,115,116,109,95,49,49,95,49,47,119,104,105,108,101,47,108,115,116,109,95,99,101,108,108,95,49,47,84,97,110,104,95,49,0,0,0,2,0,0,0,1,0,0,0,16,0,0,0,158,187,255,255,0,0,0,1,20,0,0,0,28,0,0,0,28,0,0,0,125,0,0,0,76,0,0,0,2,0,0,0,255,255,255,255,16,0,0,0,148,186,255,255,48,0,0,0,115,101,113,117,101,110,116,105,97,108,95,53,95,49,47,108,115,116,109,95,49,49,95,49,47,119,104,105,108,101,47,108,115,116,109,95,99,101,108,108,95,49,47,97,100,100,95,50,0,0,0,0,2,0,0,0,1,0,0,0,16,0,0,0,14,188,255,255,0,0,0,1,20,0,0,0,28,0,0,0,28,0,0,0,124,0,0,0,76,0,0,0,2,0,0,0,255,255,255,255,16,0,0,0,4,187,255,255,48,0,0,0,115,101,113,117,101,110,116,105,97,108,95,53,95,49,47,108,115,116,109,95,49,49,95,49,47,119,104,105,108,101,47,108,115,116,109,95,99,101,108,108,95,49,47,109,117,108,95,49,0,0,0,0,2,0,0,0,1,0,0,0,16,0,0,0,126,188,255,255,0,0,0,1,20,0,0,0,28,0,0,0,28,0,0,0,123,0,0,0,72,0,0,0,2,0,0,0,255,255,255,255,16,0,0,0,116,187,255,255,47,0,0,0,115,101,113,117,101,110,116,105,97,108,95,53,95,49,47,108,115,116,109,95,49,49,95,49,47,119,104,105,108,101,47,108,115,116,109,95,99,101,108,108,95,49,47,84,97,110,104,0,2,0,0,0,1,0,0,0,16,0,0,0,234,188,255,255,0,0,0,1,20,0,0,0,28,0,0,0,28,0,0,0,122,0,0,0,80,0,0,0,2,0,0,0,255,255,255,255,16,0,0,0,224,187,255,255,52,0,0,0,115,101,113,117,101,110,116,105,97,108,95,53,95,49,47,108,115,116,109,95,49,49,95,49,47,119,104,105,108,101,47,108,115,116,109,95,99,101,108,108,95,49,47,83,105,103,109,111,105,100,95,50,0,0,0,0,2,0,0,0,1,0,0,0,16,0,0,0,94,189,255,255,0,0,0,1,20,0,0,0,28,0,0,0,28,0,0,0,121,0,0,0,72,0,0,0,2,0,0,0,255,255,255,255,16,0,0,0,84,188,255,255,46,0,0,0,115,101,113,117,101,110,116,105,97,108,95,53,95,49,47,108,115,116,109,95,49,49,95,49,47,119,104,105,108,101,47,108,115,116,109,95,99,101,108,108,95,49,47,109,117,108,0,0,2,0,0,0,1,0,0,0,16,0,0,0,202,189,255,255,0,0,0,1,20,0,0,0,28,0,0,0,28,0,0,0,120,0,0,0,80,0,0,0,2,0,0,0,255,255,255,255,16,0,0,0,192,188,255,255,52,0,0,0,115,101,113,117,101,110,116,105,97,108,95,53,95,49,47,108,115,116,109,95,49,49,95,49,47,119,104,105,108,101,47,108,115,116,109,95,99,101,108,108,95,49,47,83,105,103,109,111,105,100,95,49,0,0,0,0,2,0,0,0,1,0,0,0,16,0,0,0,62,190,255,255,0,0,0,1,20,0,0,0,28,0,0,0,28,0,0,0,119,0,0,0,76,0,0,0,2,0,0,0,255,255,255,255,16,0,0,0,52,189,255,255,50,0,0,0,115,101,113,117,101,110,116,105,97,108,95,53,95,49,47,108,115,116,109,95,49,49,95,49,47,119,104,105,108,101,47,108,115,116,109,95,99,101,108,108,95,49,47,83,105,103,109,111,105,100,0,0,2,0,0,0,1,0,0,0,16,0,0,0,174,190,255,255,0,0,0,1,20,0,0,0,28,0,0,0,28,0,0,0,118,0,0,0,76,0,0,0,2,0,0,0,255,255,255,255,16,0,0,0,164,189,255,255,49,0,0,0,115,101,113,117,101,110,116,105,97,108,95,53,95,49,47,108,115,116,109,95,49,49,95,49,47,119,104,105,108,101,47,108,115,116,109,95,99,101,108,108,95,49,47,115,112,108,105,116,51,0,0,0,2,0,0,0,1,0,0,0,16,0,0,0,30,191,255,255,0,0,0,1,20,0,0,0,28,0,0,0,28,0,0,0,117,0,0,0,76,0,0,0,2,0,0,0,255,255,255,255,16,0,0,0,20,190,255,255,49,0,0,0,115,101,113,117,101,110,116,105,97,108,95,53,95,49,47,108,115,116,109,95,49,49,95,49,47,119,104,105,108,101,47,108,115,116,109,95,99,101,108,108,95,49,47,115,112,108,105,116,50,0,0,0,2,0,0,0,1,0,0,0,16,0,0,0,142,191,255,255,0,0,0,1,20,0,0,0,28,0,0,0,28,0,0,0,116,0,0,0,76,0,0,0,2,0,0,0,255,255,255,255,16,0,0,0,132,190,255,255,49,0,0,0,115,101,113,117,101,110,116,105,97,108,95,53,95,49,47,108,115,116,109,95,49,49,95,49,47,119,104,105,108,101,47,108,115,116,109,95,99,101,108,108,95,49,47,115,112,108,105,116,49,0,0,0,2,0,0,0,1,0,0,0,16,0,0,0,254,191,255,255,0,0,0,1,20,0,0,0,28,0,0,0,28,0,0,0,115,0,0,0,76,0,0,0,2,0,0,0,255,255,255,255,16,0,0,0,244,190,255,255,48,0,0,0,115,101,113,117,101,110,116,105,97,108,95,53,95,49,47,108,115,116,109,95,49,49,95,49,47,119,104,105,108,101,47,108,115,116,109,95,99,101,108,108,95,49,47,115,112,108,105,116,0,0,0,0,2,0,0,0,1,0,0,0,16,0,0,0,110,192,255,255,0,0,0,1,20,0,0,0,28,0,0,0,28,0,0,0,114,0,0,0,76,0,0,0,2,0,0,0,255,255,255,255,64,0,0,0,100,191,255,255,48,0,0,0,115,101,113,117,101,110,116,105,97,108,95,53,95,49,47,108,115,116,109,95,49,49,95,49,47,119,104,105,108,101,47,108,115,116,109,95,99,101,108,108,95,49,47,97,100,100,95,49,0,0,0,0,2,0,0,0,1,0,0,0,64,0,0,0,222,192,255,255,0,0,0,1,20,0,0,0,28,0,0,0,28,0,0,0,113,0,0,0,72,0,0,0,2,0,0,0,255,255,255,255,64,0,0,0,212,191,255,255,46,0,0,0,115,101,113,117,101,110,116,105,97,108,95,53,95,49,47,108,115,116,109,95,49,49,95,49,47,119,104,105,108,101,47,108,115,116,109,95,99,101,108,108,95,49,47,97,100,100,0,0,2,0,0,0,1,0,0,0,64,0,0,0,74,193,255,255,0,0,0,1,20,0,0,0,28,0,0,0,28,0,0,0,112,0,0,0,76,0,0,0,2,0,0,0,255,255,255,255,64,0,0,0,64,192,255,255,49,0,0,0,115,101,113,117,101,110,116,105,97,108,95,53,95,49,47,108,115,116,109,95,49,49,95,49,47,119,104,105,108,101,47,108,115,116,109,95,99,101,108,108,95,49,47,77,97,116,77,117,108,0,0,0,2,0,0,0,1,0,0,0,64,0,0,0,186,193,255,255,0,0,0,1,20,0,0,0,28,0,0,0,28,0,0,0,111,0,0,0,92,0,0,0,2,0,0,0,255,255,255,255,32,0,0,0,176,192,255,255,67,0,0,0,115,101,113,117,101,110,116,105,97,108,95,53,95,49,47,108,115,116,109,95,49,49,95,49,47,119,104,105,108,101,47,84,101,110,115,111,114,65,114,114,97,121,86,50,82,101,97,100,47,84,101,110,115,111,114,76,105,115,116,71,101,116,73,116,101,109,59,0,2,0,0,0,1,0,0,0,32,0,0,0,142,194,255,255,0,0,0,1,20,0,0,0,20,0,0,0,110,0,0,0,0,0,0,2,52,0,0,0,36,193,255,255,36,0,0,0,115,101,113,117,101,110,116,105,97,108,95,53,95,49,47,108,115,116,109,95,49,49,95,49,47,119,104,105,108,101,47,97,100,100,95,49,0,0,0,0,0,0,0,0,138,194,255,255,0,0,0,1,20,0,0,0,28,0,0,0,28,0,0,0,109,0,0,0,76,0,0,0,2,0,0,0,255,255,255,255,64,0,0,0,128,193,255,255,51,0,0,0,115,101,113,117,101,110,116,105,97,108,95,53,95,49,47,108,115,116,109,95,49,49,95,49,47,119,104,105,108,101,47,108,115,116,109,95,99,101,108,108,95,49,47,77,97,116,77,117,108,95,49,0,2,0,0,0,1,0,0,0,64,0,0,0,78,195,255,255,0,0,0,1,20,0,0,0,20,0,0,0,108,0,0,0,0,0,0,2,48,0,0,0,228,193,255,255,34,0,0,0,115,101,113,117,101,110,116,105,97,108,95,53,95,49,47,108,115,116,109,95,49,49,95,49,47,119,104,105,108,101,47,97,100,100,0,0,0,0,0,0,154,195,255,255,0,0,0,1,20,0,0,0,40,3,0,0,107,0,0,0,0,0,0,9,52,3,0,0,220,228,255,255,8,0,0,0,12,2,0,0,64,0,0,0,0,0,0,0,0,0,0,0,0,0,0,0,0,0,0,0,0,0,0,0,0,0,0,0,0,0,0,0,0,0,0,0,0,0,0,0,0,0,0,0,0,0,0,0,0,0,0,0,0,0,0,0,0,0,0,0,0,0,0,0,0,0,0,0,0,0,0,0,0,0,0,0,0,0,0,0,0,0,0,0,0,0,0,0,0,0,0,0,0,0,0,0,0,0,0,0,0,0,0,0,0,0,0,0,0,0,0,0,0,0,0,0,0,0,0,0,0,0,0,0,0,0,0,0,0,0,0,0,0,0,0,0,0,0,0,0,0,0,0,0,0,0,0,0,0,0,0,0,0,0,0,0,0,0,0,0,0,0,0,0,0,0,0,0,0,0,0,0,0,0,0,0,0,0,0,0,0,0,0,0,0,0,0,0,0,0,0,0,0,0,0,0,0,0,0,0,0,0,0,0,0,0,0,0,0,0,0,0,0,0,0,0,0,0,0,0,0,0,0,0,0,0,0,0,0,0,0,0,0,0,0,0,0,0,0,0,0,0,0,0,0,0,0,0,0,0,0,0,0,0,0,0,0,0,0,0,0,0,0,0,0,0,0,0,0,0,0,0,0,0,0,0,0,0,0,0,0,0,0,0,0,0,0,0,0,0,0,0,0,0,0,0,0,0,0,0,0,0,0,0,0,0,0,0,0,0,0,0,0,0,0,0,0,0,0,0,0,0,0,0,0,0,0,0,0,0,0,0,0,0,0,0,0,0,0,0,0,0,0,0,0,0,0,0,0,0,0,0,0,0,0,0,0,0,0,0,0,0,0,0,0,0,0,0,0,0,0,0,0,0,0,0,0,0,0,0,0,0,0,0,0,0,0,0,0,0,0,0,0,0,0,0,0,0,0,0,0,0,0,0,0,0,0,0,0,0,0,0,0,0,0,0,0,0,0,0,0,0,0,0,0,0,0,0,0,0,0,0,0,0,0,0,0,0,0,0,0,0,0,0,0,0,0,0,0,0,0,0,0,0,0,0,0,0,0,0,0,0,0,0,0,0,0,0,0,0,0,0,0,0,0,0,0,0,0,0,0,0,0,0,0,0,0,0,0,0,0,0,0,0,0,0,0,0,0,0,0,0,0,0,0,0,0,0,0,0,0,0,0,0,0,0,0,0,0,0,64,0,0,0,146,147,12,59,126,145,41,59,103,97,54,59,14,160,123,59,149,80,26,59,51,171,79,59,117,233,134,59,129,54,104,59,196,100,166,59,46,106,45,59,102,170,104,59,170,38,83,59,71,5,6,59,246,13,150,59,216,251,19,59,133,47,104,59,137,102,48,59,43,172,48,59,174,146,208,58,49,84,212,58,161,89,53,59,119,107,66,59,207,131,13,59,15,175,49,59,21,227,151,59,109,35,231,58,109,58,145,59,164,105,26,59,77,131,20,59,52,128,28,59,183,127,70,59,188,191,53,59,51,189,36,59,84,85,47,59,131,241,11,59,24,87,14,59,102,114,53,59,141,97,254,58,240,21,165,58,176,62,113,59,62,111,23,59,1,17,31,59,31,183,231,58,53,4,175,58,8,192,206,58,166,188,73,59,233,68,27,59,7,78,13,59,79,200,42,59,37,60,64,59,245,89,52,59,161,0,142,59,84,1,110,59,243,83,250,58,200,143,12,59,67,30,151,59,58,243,166,59,71,146,42,59,44,105,120,59,113,158,164,59,26,89,46,59,38,224,70,59,189,238,211,58,55,130,43,59,18,0,0,0,116,102,108,46,112,115,101,117,100,111,95,113,99,111,110,115,116,50,0,0,2,0,0,0,64,0,0,0,16,0,0,0,242,198,255,255,0,0,0,1,20,0,0,0,40,3,0,0,106,0,0,0,0,0,0,9,52,3,0,0,52,232,255,255,8,0,0,0,12,2,0,0,64,0,0,0,0,0,0,0,0,0,0,0,0,0,0,0,0,0,0,0,0,0,0,0,0,0,0,0,0,0,0,0,0,0,0,0,0,0,0,0,0,0,0,0,0,0,0,0,0,0,0,0,0,0,0,0,0,0,0,0,0,0,0,0,0,0,0,0,0,0,0,0,0,0,0,0,0,0,0,0,0,0,0,0,0,0,0,0,0,0,0,0,0,0,0,0,0,0,0,0,0,0,0,0,0,0,0,0,0,0,0,0,0,0,0,0,0,0,0,0,0,0,0,0,0,0,0,0,0,0,0,0,0,0,0,0,0,0,0,0,0,0,0,0,0,0,0,0,0,0,0,0,0,0,0,0,0,0,0,0,0,0,0,0,0,0,0,0,0,0,0,0,0,0,0,0,0,0,0,0,0,0,0,0,0,0,0,0,0,0,0,0,0,0,0,0,0,0,0,0,0,0,0,0,0,0,0,0,0,0,0,0,0,0,0,0,0,0,0,0,0,0,0,0,0,0,0,0,0,0,0,0,0,0,0,0,0,0,0,0,0,0,0,0,0,0,0,0,0,0,0,0,0,0,0,0,0,0,0,0,0,0,0,0,0,0,0,0,0,0,0,0,0,0,0,0,0,0,0,0,0,0,0,0,0,0,0,0,0,0,0,0,0,0,0,0,0,0,0,0,0,0,0,0,0,0,0,0,0,0,0,0,0,0,0,0,0,0,0,0,0,0,0,0,0,0,0,0,0,0,0,0,0,0,0,0,0,0,0,0,0,0,0,0,0,0,0,0,0,0,0,0,0,0,0,0,0,0,0,0,0,0,0,0,0,0,0,0,0,0,0,0,0,0,0,0,0,0,0,0,0,0,0,0,0,0,0,0,0,0,0,0,0,0,0,0,0,0,0,0,0,0,0,0,0,0,0,0,0,0,0,0,0,0,0,0,0,0,0,0,0,0,0,0,0,0,0,0,0,0,0,0,0,0,0,0,0,0,0,0,0,0,0,0,0,0,0,0,0,0,0,0,0,0,0,0,0,0,0,0,0,0,0,0,0,0,0,0,0,0,0,0,0,0,0,0,0,0,0,0,0,0,0,0,0,0,0,0,0,0,0,0,0,0,0,0,0,0,0,0,0,0,0,0,0,0,0,0,0,0,0,0,0,0,0,0,0,0,0,0,64,0,0,0,199,82,30,59,12,190,27,59,207,80,46,59,65,156,64,59,63,246,55,59,31,160,15,59,180,88,40,59,103,211,83,59,191,152,72,59,156,131,54,59,223,50,46,59,184,215,24,59,243,91,21,59,31,162,66,59,73,22,75,59,161,68,80,59,245,93,55,59,106,174,70,59,111,61,159,59,166,239,225,58,82,135,38,59,172,93,129,59,3,115,16,59,11,224,145,59,1,79,164,59,0,174,123,59,185,24,96,59,65,83,35,59,74,103,50,59,1,163,72,59,26,89,44,59,156,94,40,59,167,248,255,58,60,98,235,58,122,88,1,59,219,61,22,59,95,204,5,59,1,7,251,58,206,212,2,59,252,206,9,59,136,42,35,59,85,229,14,59,226,125,18,59,160,103,27,59,215,90,14,59,173,5,251,58,48,142,3,59,170,55,244,58,107,43,70,59,59,55,77,59,117,244,103,59,96,207,136,59,41,4,93,59,109,20,159,59,246,178,132,59,229,159,103,59,63,157,161,59,218,50,65,59,72,81,116,59,238,202,137,59,139,137,95,59,188,254,92,59,171,51,65,59,56,104,64,59,18,0,0,0,116,102,108,46,112,115,101,117,100,111,95,113,99,111,110,115,116,49,0,0,2,0,0,0,64,0,0,0,32,0,0,0,22,203,255,255,0,0,0,1,16,0,0,0,16,0,0,0,105,0,0,0,32,0,0,0,220,200,255,255,16,0,0,0,97,114,105,116,104,46,99,111,110,115,116,97,110,116,50,51,0,0,0,0,1,0,0,0,64,0,0,0,134,202,255,255,0,0,0,1,20,0,0,0,20,0,0,0,13,0,0,0,0,0,0,2,32,0,0,0,28,201,255,255,16,0,0,0,97,114,105,116,104,46,99,111,110,115,116,97,110,116,50,50,0,0,0,0,0,0,0,0,194,202,255,255,0,0,0,1,20,0,0,0,20,0,0,0,11,0,0,0,0,0,0,2,32,0,0,0,88,201,255,255,16,0,0,0,97,114,105,116,104,46,99,111,110,115,116,97,110,116,50,49,0,0,0,0,0,0,0,0,170,202,255,255,0,0,0,1,20,0,0,0,32,0,0,0,32,0,0,0,102,0,0,0,36,0,0,0,3,0,0,0,10,0,0,0,255,255,255,255,32,0,0,0,164,201,255,255,4,0,0,0,97,114,103,53,0,0,0,0,3,0,0,0,10,0,0,0,1,0,0,0,32,0,0,0,246,202,255,255,0,0,0,1,20,0,0,0,28,0,0,0,28,0,0,0,101,0,0,0,32,0,0,0,2,0,0,0,255,255,255,255,16,0,0,0,236,201,255,255,4,0,0,0,97,114,103,52,0,0,0,0,2,0,0,0,1,0,0,0,16,0,0,0,58,203,255,255,0,0,0,1,20,0,0,0,28,0,0,0,28,0,0,0,100,0,0,0,32,0,0,0,2,0,0,0,255,255,255,255,16,0,0,0,48,202,255,255,4,0,0,0,97,114,103,51,0,0,0,0,2,0,0,0,1,0,0,0,16,0,0,0,80,208,255,255,28,0,0,0,0,0,0,1,52,0,0,0,52,0,0,0,99,0,0,0,0,0,0,14,52,0,0,0,1,0,0,0,4,0,0,0,54,208,255,255,0,0,0,1,4,0,0,0,2,0,0,0,0,0,0,0,16,0,0,0,140,202,255,255,4,0,0,0,97,114,103,50,0,0,0,0,0,0,0,0,38,204,255,255,0,0,0,1,20,0,0,0,20,0,0,0,98,0,0,0,0,0,0,2,20,0,0,0,188,202,255,255,4,0,0,0,97,114,103,49,0,0,0,0,0,0,0,0,86,204,255,255,0,0,0,1,20,0,0,0,20,0,0,0,97,0,0,0,0,0,0,2,20,0,0,0,236,202,255,255,4,0,0,0,97,114,103,48,0,0,0,0,0,0,0,0,102,225,255,255,20,0,0,0,56,0,0,0,176,0,0,0,180,0,0,0,204,0,0,0,35,0,0,0,115,101,113,117,101,110,116,105,97,108,95,53,95,49,47,108,115,116,109,95,49,49,95,49,47,119,104,105,108,101,95,99,111,110,100,0,3,0,0,0,84,0,0,0,44,0,0,0,4,0,0,0,14,221,255,255,12,0,0,0,16,0,0,0,10,0,0,0,1,0,0,0,9,0,0,0,2,0,0,0,8,0,0,0,7,0,0,0,50,221,255,255,12,0,0,0,16,0,0,0,9,0,0,0,1,0,0,0,8,0,0,0,2,0,0,0,0,0,0,0,6,0,0,0,86,221,255,255,12,0,0,0,16,0,0,0,9,0,0,0,1,0,0,0,7,0,0,0,2,0,0,0,1,0,0,0,6,0,0,0,1,0,0,0,9,0,0,0,6,0,0,0,0,0,0,0,1,0,0,0,2,0,0,0,3,0,0,0,4,0,0,0,5,0,0,0,10,0,0,0,172,2,0,0,120,2,0,0,32,2,0,0,216,1,0,0,144,1,0,0,64,1,0,0,0,1,0,0,176,0,0,0,92,0,0,0,4,0,0,0,146,205,255,255,0,0,0,1,20,0,0,0,20,0,0,0,96,0,0,0,0,0,0,6,56,0,0,0,40,204,255,255,41,0,0,0,115,101,113,117,101,110,116,105,97,108,95,53,95,49,47,108,115,116,109,95,49,49,95,49,47,119,104,105,108,101,47,76,111,103,105,99,97,108,65,110,100,0,0,0,0,0,0,0,230,205,255,255,0,0,0,1,20,0,0,0,20,0,0,0,95,0,0,0,0,0,0,6,52,0,0,0,124,204,255,255,37,0,0,0,115,101,113,117,101,110,116,105,97,108,95,53,95,49,47,108,115,116,109,95,49,49,95,49,47,119,104,105,108,101,47,76,101,115,115,95,49,0,0,0,0,0,0,0,54,206,255,255,0,0,0,1,20,0,0,0,20,0,0,0,94,0,0,0,0,0,0,6,48,0,0,0,204,204,255,255,35,0,0,0,115,101,113,117,101,110,116,105,97,108,95,53,95,49,47,108,115,116,109,95,49,49,95,49,47,119,104,105,108,101,47,76,101,115,115,0,0,0,0,0,130,206,255,255,0,0,0,1,20,0,0,0,20,0,0,0,7,0,0,0,0,0,0,2,32,0,0,0,24,205,255,255,16,0,0,0,97,114,105,116,104,46,99,111,110,115,116,97,110,116,50,48,0,0,0,0,0,0,0,0,106,206,255,255,0,0,0,1,20,0,0,0,32,0,0,0,32,0,0,0,92,0,0,0,36,0,0,0,3,0,0,0,10,0,0,0,255,255,255,255,32,0,0,0,100,205,255,255,4,0,0,0,97,114,103,53,0,0,0,0,3,0,0,0,10,0,0,0,1,0,0,0,32,0,0,0,182,206,255,255,0,0,0,1,20,0,0,0,28,0,0,0,28,0,0,0,91,0,0,0,32,0,0,0,2,0,0,0,255,255,255,255,16,0,0,0,172,205,255,255,4,0,0,0,97,114,103,52,0,0,0,0,2,0,0,0,1,0,0,0,16,0,0,0,250,206,255,255,0,0,0,1,20,0,0,0,28,0,0,0,28,0,0,0,90,0,0,0,32,0,0,0,2,0,0,0,255,255,255,255,16,0,0,0,240,205,255,255,4,0,0,0,97,114,103,51,0,0,0,0,2,0,0,0,1,0,0,0,16,0,0,0,16,212,255,255,28,0,0,0,0,0,0,1,52,0,0,0,52,0,0,0,89,0,0,0,0,0,0,14,52,0,0,0,1,0,0,0,4,0,0,0,246,211,255,255,0,0,0,1,4,0,0,0,2,0,0,0,0,0,0,0,16,0,0,0,76,206,255,255,4,0,0,0,97,114,103,50,0,0,0,0,0,0,0,0,230,207,255,255,0,0,0,1,20,0,0,0,20,0,0,0,88,0,0,0,0,0,0,2,20,0,0,0,124,206,255,255,4,0,0,0,97,114,103,49,0,0,0,0,0,0,0,0,22,208,255,255,0,0,0,1,20,0,0,0,20,0,0,0,87,0,0,0,0,0,0,2,20,0,0,0,172,206,255,255,4,0,0,0,97,114,103,48,0,0,0,0,0,0,0,0,38,229,255,255,20,0,0,0,56,0,0,0,156,4,0,0,180,4,0,0,204,4,0,0,35,0,0,0,115,101,113,117,101,110,116,105,97,108,95,53,95,49,47,108,115,116,109,95,49,48,95,49,47,119,104,105,108,101,95,98,111,100,121,0,18,0,0,0,52,4,0,0,236,3,0,0,184,3,0,0,132,3,0,0,76,3,0,0,24,3,0,0,228,2,0,0,160,2,0,0,124,2,0,0,88,2,0,0,36,2,0,0,0,2,0,0,220,1,0,0,168,1,0,0,116,1,0,0,80,1,0,0,28,1,0,0,4,0,0,0,128,224,255,255,16,0,0,0,244,0,0,0,248,0,0,0,17,0,0,0,226,0,0,0,17,84,101,110,115,111,114,76,105,115,116,83,101,116,73,116,101,109,0,197,18,17,84,101,110,115,111,114,76,105,115,116,83,101,116,73,116,101,109,26,0,26,0,26,0,42,19,10,13,101,108,101,109,101,110,116,95,100,116,121,112,101,18,2,48,1,42,35,10,29,114,101,115,105,122,101,95,105,102,95,105,110,100,101,120,95,111,117,116,95,111,102,95,98,111,117,110,100,115,18,2,40,0,50,112,10,67,115,101,113,117,101,110,116,105,97,108,95,53,95,49,47,108,115,116,109,95,49,48,95,49,47,119,104,105,108,101,47,84,101,110,115,111,114,65,114,114,97,121,86,50,87,114,105,116,101,47,84,101,110,115,111,114,76,105,115,116,83,101,116,73,116,101,109,18,41,115,101,113,117,101,110,116,105,97,108,95,53,95,49,95,108,115,116,109,95,49,48,95,49,95,119,104,105,108,101,95,98,111,100,121,95,55,49,56,53,51,0,2,218,200,20,20,4,40,1,0,0,1,0,0,0,30,0,0,0,3,0,0,0,2,0,0,0,1,0,0,0,29,0,0,0,238,225,255,255,20,0,0,0,0,0,0,21,16,0,0,0,20,0,0,0,15,0,0,0,120,208,255,255,1,0,0,0,29,0,0,0,2,0,0,0,24,0,0,0,28,0,0,0,78,226,255,255,12,0,0,0,16,0,0,0,16,0,0,0,1,0,0,0,28,0,0,0,1,0,0,0,27,0,0,0,62,226,255,255,20,0,0,0,0,0,0,11,16,0,0,0,20,0,0,0,11,0,0,0,200,208,255,255,1,0,0,0,27,0,0,0,2,0,0,0,23,0,0,0,26,0,0,0,110,226,255,255,20,0,0,0,0,0,0,21,16,0,0,0,20,0,0,0,15,0,0,0,248,208,255,255,1,0,0,0,26,0,0,0,2,0,0,0,21,0,0,0,25,0,0,0,206,226,255,255,12,0,0,0,16,0,0,0,16,0,0,0,1,0,0,0,25,0,0,0,1,0,0,0,19,0,0,0,238,226,255,255,12,0,0,0,16,0,0,0,14,0,0,0,1,0,0,0,24,0,0,0,1,0,0,0,20,0,0,0,222,226,255,255,20,0,0,0,0,0,0,21,16,0,0,0,20,0,0,0,15,0,0,0,104,209,255,255,1,0,0,0,23,0,0,0,2,0,0,0,22,0,0,0,4,0,0,0,62,227,255,255,12,0,0,0,16,0,0,0,14,0,0,0,1,0,0,0,22,0,0,0,1,0,0,0,18,0,0,0,94,227,255,255,12,0,0,0,16,0,0,0,14,0,0,0,1,0,0,0,21,0,0,0,1,0,0,0,17,0,0,0,78,227,255,255,20,0,0,0,0,0,0,35,20,0,0,0,36,0,0,0,13,0,0,0,186,227,255,255,4,0,0,0,4,0,0,0,17,0,0,0,18,0,0,0,19,0,0,0,20,0,0,0,2,0,0,0,6,0,0,0,16,0,0,0,142,227,255,255,20,0,0,0,0,0,0,11,16,0,0,0,20,0,0,0,11,0,0,0,24,210,255,255,1,0,0,0,16,0,0,0,2,0,0,0,15,0,0,0,7,0,0,0,190,227,255,255,20,0,0,0,0,0,0,11,16,0,0,0,20,0,0,0,11,0,0,0,72,210,255,255,1,0,0,0,15,0,0,0,2,0,0,0,14,0,0,0,11,0,0,0,238,227,255,255,20,0,0,0,0,0,0,8,16,0,0,0,20,0,0,0,8,0,0,0,120,210,255,255,1,0,0,0,14,0,0,0,3,0,0,0,13,0,0,0,8,0,0,0,255,255,255,255,34,228,255,255,20,0,0,0,0,0,0,23,16,0,0,0,20,0,0,0,12,0,0,0,172,210,255,255,1,0,0,0,13,0,0,0,2,0,0,0,5,0,0,0,1,0,0,0,82,228,255,255,20,0,0,0,0,0,0,11,16,0,0,0,20,0,0,0,11,0,0,0,220,210,255,255,1,0,0,0,12,0,0,0,2,0,0,0,0,0,0,0,6,0,0,0,130,228,255,255,32,0,0,0,0,0,0,8,32,0,0,0,36,0,0,0,8,0,0,0,12,0,8,0,0,0,0,0,0,0,7,0,12,0,0,0,0,0,0,1,1,0,0,0,11,0,0,0,3,0,0,0,3,0,0,0,9,0,0,0,255,255,255,255,198,228,255,255,20,0,0,0,0,0,0,11,16,0,0,0,20,0,0,0,11,0,0,0,80,211,255,255,1,0,0,0,10,0,0,0,2,0,0,0,1,0,0,0,6,0,0,0,6,0,0,0,12,0,0,0,10,0,0,0,30,0,0,0,29,0,0,0,27,0,0,0,5,0,0,0,6,0,0,0,0,0,0,0,1,0,0,0,2,0,0,0,3,0,0,0,4,0,0,0,5,0,0,0,31,0,0,0,4,18,0,0,208,17,0,0,120,17,0,0,48,17,0,0,232,16,0,0,152,16,0,0,88,16,0,0,24,16,0,0,212,15,0,0,112,9,0,0,32,9,0,0,172,8,0,0,88,8,0,0,212,7,0,0,96,7,0,0,240,6,0,0,124,6,0,0,8,6,0,0,148,5,0,0,32,5,0,0,172,4,0,0,56,4,0,0,192,3,0,0,80,3,0,0,216,2,0,0,104,2,0,0,244,1,0,0,128,1,0,0,12,1,0,0,152,0,0,0,4,0,0,0,36,218,255,255,28,0,0,0,0,0,0,1,52,0,0,0,52,0,0,0,86,0,0,0,0,0,0,14,112,0,0,0,1,0,0,0,4,0,0,0,10,218,255,255,0,0,0,1,4,0,0,0,2,0,0,0,0,0,0,0,32,0,0,0,96,212,255,255,67,0,0,0,115,101,113,117,101,110,116,105,97,108,95,53,95,49,47,108,115,116,109,95,49,48,95,49,47,119,104,105,108,101,47,84,101,110,115,111,114,65,114,114,97,121,86,50,87,114,105,116,101,47,84,101,110,115,111,114,76,105,115,116,83,101,116,73,116,101,109,0,0,0,0,0,226,213,255,255,0,0,0,1,20,0,0,0,28,0,0,0,28,0,0,0,85,0,0,0,76,0,0,0,2,0,0,0,255,255,255,255,32,0,0,0,216,212,255,255,48,0,0,0,115,101,113,117,101,110,116,105,97,108,95,53,95,49,47,108,115,116,109,95,49,48,95,49,47,119,104,105,108,101,47,108,115,116,109,95,99,101,108,108,95,49,47,109,117,108,95,50,0,0,0,0,2,0,0,0,1,0,0,0,32,0,0,0,82,214,255,255,0,0,0,1,20,0,0,0,28,0,0,0,28,0,0,0,84,0,0,0,76,0,0,0,2,0,0,0,255,255,255,255,32,0,0,0,72,213,255,255,49,0,0,0,115,101,113,117,101,110,116,105,97,108,95,53,95,49,47,108,115,116,109,95,49,48,95,49,47,119,104,105,108,101,47,108,115,116,109,95,99,101,108,108,95,49,47,84,97,110,104,95,49,0,0,0,2,0,0,0,1,0,0,0,32,0,0,0,194,214,255,255,0,0,0,1,20,0,0,0,28,0,0,0,28,0,0,0,83,0,0,0,76,0,0,0,2,0,0,0,255,255,255,255,32,0,0,0,184,213,255,255,48,0,0,0,115,101,113,117,101,110,116,105,97,108,95,53,95,49,47,108,115,116,109,95,49,48,95,49,47,119,104,105,108,101,47,108,115,116,109,95,99,101,108,108,95,49,47,97,100,100,95,50,0,0,0,0,2,0,0,0,1,0,0,0,32,0,0,0,50,215,255,255,0,0,0,1,20,0,0,0,28,0,0,0,28,0,0,0,82,0,0,0,76,0,0,0,2,0,0,0,255,255,255,255,32,0,0,0,40,214,255,255,48,0,0,0,115,101,113,117,101,110,116,105,97,108,95,53,95,49,47,108,115,116,109,95,49,48,95,49,47,119,104,105,108,101,47,108,115,116,109,95,99,101,108,108,95,49,47,109,117,108,95,49,0,0,0,0,2,0,0,0,1,0,0,0,32,0,0,0,162,215,255,255,0,0,0,1,20,0,0,0,28,0,0,0,28,0,0,0,81,0,0,0,72,0,0,0,2,0,0,0,255,255,255,255,32,0,0,0,152,214,255,255,47,0,0,0,115,101,113,117,101,110,116,105,97,108,95,53,95,49,47,108,115,116,109,95,49,48,95,49,47,119,104,105,108,101,47,108,115,116,109,95,99,101,108,108,95,49,47,84,97,110,104,0,2,0,0,0,1,0,0,0,32,0,0,0,14,216,255,255,0,0,0,1,20,0,0,0,28,0,0,0,28,0,0,0,80,0,0,0,80,0,0,0,2,0,0,0,255,255,255,255,32,0,0,0,4,215,255,255,52,0,0,0,115,101,113,117,101,110,116,105,97,108,95,53,95,49,47,108,115,116,109,95,49,48,95,49,47,119,104,105,108,101,47,108,115,116,109,95,99,101,108,108,95,49,47,83,105,103,109,111,105,100,95,50,0,0,0,0,2,0,0,0,1,0,0,0,32,0,0,0,130,216,255,255,0,0,0,1,20,0,0,0,28,0,0,0,28,0,0,0,79,0,0,0,72,0,0,0,2,0,0,0,255,255,255,255,32,0,0,0,120,215,255,255,46,0,0,0,115,101,113,117,101,110,116,105,97,108,95,53,95,49,47,108,115,116,109,95,49,48,95,49,47,119,104,105,108,101,47,108,115,116,109,95,99,101,108,108,95,49,47,109,117,108,0,0,2,0,0,0,1,0,0,0,32,0,0,0,238,216,255,255,0,0,0,1,20,0,0,0,28,0,0,0,28,0,0,0,78,0,0,0,80,0,0,0,2,0,0,0,255,255,255,255,32,0,0,0,228,215,255,255,52,0,0,0,115,101,113,117,101,110,116,105,97,108,95,53,95,49,47,108,115,116,109,95,49,48,95,49,47,119,104,105,108,101,47,108,115,116,109,95,99,101,108,108,95,49,47,83,105,103,109,111,105,100,95,49,0,0,0,0,2,0,0,0,1,0,0,0,32,0,0,0,98,217,255,255,0,0,0,1,20,0,0,0,28,0,0,0,28,0,0,0,77,0,0,0,76,0,0,0,2,0,0,0,255,255,255,255,32,0,0,0,88,216,255,255,50,0,0,0,115,101,113,117,101,110,116,105,97,108,95,53,95,49,47,108,115,116,109,95,49,48,95,49,47,119,104,105,108,101,47,108,115,116,109,95,99,101,108,108,95,49,47,83,105,103,109,111,105,100,0,0,2,0,0,0,1,0,0,0,32,0,0,0,210,217,255,255,0,0,0,1,20,0,0,0,28,0,0,0,28,0,0,0,76,0,0,0,76,0,0,0,2,0,0,0,255,255,255,255,32,0,0,0,200,216,255,255,49,0,0,0,115,101,113,117,101,110,116,105,97,108,95,53,95,49,47,108,115,116,109,95,49,48,95,49,47,119,104,105,108,101,47,108,115,116,109,95,99,101,108,108,95,49,47,115,112,108,105,116,51,0,0,0,2,0,0,0,1,0,0,0,32,0,0,0,66,218,255,255,0,0,0,1,20,0,0,0,28,0,0,0,28,0,0,0,75,0,0,0,76,0,0,0,2,0,0,0,255,255,255,255,32,0,0,0,56,217,255,255,49,0,0,0,115,101,113,117,101,110,116,105,97,108,95,53,95,49,47,108,115,116,109,95,49,48,95,49,47,119,104,105,108,101,47,108,115,116,109,95,99,101,108,108,95,49,47,115,112,108,105,116,50,0,0,0,2,0,0,0,1,0,0,0,32,0,0,0,178,218,255,255,0,0,0,1,20,0,0,0,28,0,0,0,28,0,0,0,74,0,0,0,76,0,0,0,2,0,0,0,255,255,255,255,32,0,0,0,168,217,255,255,49,0,0,0,115,101,113,117,101,110,116,105,97,108,95,53,95,49,47,108,115,116,109,95,49,48,95,49,47,119,104,105,108,101,47,108,115,116,109,95,99,101,108,108,95,49,47,115,112,108,105,116,49,0,0,0,2,0,0,0,1,0,0,0,32,0,0,0,34,219,255,255,0,0,0,1,20,0,0,0,28,0,0,0,28,0,0,0,73,0,0,0,76,0,0,0,2,0,0,0,255,255,255,255,32,0,0,0,24,218,255,255,48,0,0,0,115,101,113,117,101,110,116,105,97,108,95,53,95,49,47,108,115,116,109,95,49,48,95,49,47,119,104,105,108,101,47,108,115,116,109,95,99,101,108,108,95,49,47,115,112,108,105,116,0,0,0,0,2,0,0,0,1,0,0,0,32,0,0,0,146,219,255,255,0,0,0,1,20,0,0,0,28,0,0,0,28,0,0,0,72,0,0,0,76,0,0,0,2,0,0,0,255,255,255,255,128,0,0,0,136,218,255,255,48,0,0,0,115,101,113,117,101,110,116,105,97,108,95,53,95,49,47,108,115,116,109,95,49,48,95,49,47,119,104,105,108,101,47,108,115,116,109,95,99,101,108,108,95,49,47,97,100,100,95,49,0,0,0,0,2,0,0,0,1,0,0,0,128,0,0,0,2,220,255,255,0,0,0,1,20,0,0,0,28,0,0,0,28,0,0,0,71,0,0,0,72,0,0,0,2,0,0,0,255,255,255,255,128,0,0,0,248,218,255,255,46,0,0,0,115,101,113,117,101,110,116,105,97,108,95,53,95,49,47,108,115,116,109,95,49,48,95,49,47,119,104,105,108,101,47,108,115,116,109,95,99,101,108,108,95,49,47,97,100,100,0,0,2,0,0,0,1,0,0,0,128,0,0,0,110,220,255,255,0,0,0,1,20,0,0,0,28,0,0,0,28,0,0,0,70,0,0,0,76,0,0,0,2,0,0,0,255,255,255,255,128,0,0,0,100,219,255,255,49,0,0,0,115,101,113,117,101,110,116,105,97,108,95,53,95,49,47,108,115,116,109,95,49,48,95,49,47,119,104,105,108,101,47,108,115,116,109,95,99,101,108,108,95,49,47,77,97,116,77,117,108,0,0,0,2,0,0,0,1,0,0,0,128,0,0,0,222,220,255,255,0,0,0,1,20,0,0,0,28,0,0,0,28,0,0,0,69,0,0,0,92,0,0,0,2,0,0,0,255,255,255,255,1,0,0,0,212,219,255,255,66,0,0,0,115,101,113,117,101,110,116,105,97,108,95,53,95,49,47,108,115,116,109,95,49,48,95,49,47,119,104,105,108,101,47,84,101,110,115,111,114,65,114,114,97,121,86,50,82,101,97,100,47,84,101,110,115,111,114,76,105,115,116,71,101,116,73,116,101,109,0,0,2,0,0,0,1,0,0,0,1,0,0,0,178,221,255,255,0,0,0,1,20,0,0,0,20,0,0,0,68,0,0,0,0,0,0,2,52,0,0,0,72,220,255,255,36,0,0,0,115,101,113,117,101,110,116,105,97,108,95,53,95,49,47,108,115,116,109,95,49,48,95,49,47,119,104,105,108,101,47,97,100,100,95,49,0,0,0,0,0,0,0,0,174,221,255,255,0,0,0,1,20,0,0,0,28,0,0,0,28,0,0,0,67,0,0,0,76,0,0,0,2,0,0,0,255,255,255,255,128,0,0,0,164,220,255,255,51,0,0,0,115,101,113,117,101,110,116,105,97,108,95,53,95,49,47,108,115,116,109,95,49,48,95,49,47,119,104,105,108,101,47,108,115,116,109,95,99,101,108,108,95,49,47,77,97,116,77,117,108,95,49,0,2,0,0,0,1,0,0,0,128,0,0,0,114,222,255,255,0,0,0,1,20,0,0,0,20,0,0,0,66,0,0,0,0,0,0,2,48,0,0,0,8,221,255,255,34,0,0,0,115,101,113,117,101,110,116,105,97,108,95,53,95,49,47,108,115,116,109,95,49,48,95,49,47,119,104,105,108,101,47,97,100,100,0,0,0,0,0,0,190,222,255,255,0,0,0,1,32,0,0,0,48,6,0,0,65,0,0,0,0,0,0,9,60,6,0,0,12,0,12,0,0,0,0,0,8,0,4,0,12,0,0,0,8,0,0,0,8,4,0,0,128,0,0,0,0,0,0,0,0,0,0,0,0,0,0,0,0,0,0,0,0,0,0,0,0,0,0,0,0,0,0,0,0,0,0,0,0,0,0,0,0,0,0,0,0,0,0,0,0,0,0,0,0,0,0,0,0,0,0,0,0,0,0,0,0,0,0,0,0,0,0,0,0,0,0,0,0,0,0,0,0,0,0,0,0,0,0,0,0,0,0,0,0,0,0,0,0,0,0,0,0,0,0,0,0,0,0,0,0,0,0,0,0,0,0,0,0,0,0,0,0,0,0,0,0,0,0,0,0,0,0,0,0,0,0,0,0,0,0,0,0,0,0,0,0,0,0,0,0,0,0,0,0,0,0,0,0,0,0,0,0,0,0,0,0,0,0,0,0,0,0,0,0,0,0,0,0,0,0,0,0,0,0,0,0,0,0,0,0,0,0,0,0,0,0,0,0,0,0,0,0,0,0,0,0,0,0,0,0,0,0,0,0,0,0,0,0,0,0,0,0,0,0,0,0,0,0,0,0,0,0,0,0,0,0,0,0,0,0,0,0,0,0,0,0,0,0,0,0,0,0,0,0,0,0,0,0,0,0,0,0,0,0,0,0,0,0,0,0,0,0,0,0,0,0,0,0,0,0,0,0,0,0,0,0,0,0,0,0,0,0,0,0,0,0,0,0,0,0,0,0,0,0,0,0,0,0,0,0,0,0,0,0,0,0,0,0,0,0,0,0,0,0,0,0,0,0,0,0,0,0,0,0,0,0,0,0,0,0,0,0,0,0,0,0,0,0,0,0,0,0,0,0,0,0,0,0,0,0,0,0,0,0,0,0,0,0,0,0,0,0,0,0,0,0,0,0,0,0,0,0,0,0,0,0,0,0,0,0,0,0,0,0,0,0,0,0,0,0,0,0,0,0,0,0,0,0,0,0,0,0,0,0,0,0,0,0,0,0,0,0,0,0,0,0,0,0,0,0,0,0,0,0,0,0,0,0,0,0,0,0,0,0,0,0,0,0,0,0,0,0,0,0,0,0,0,0,0,0,0,0,0,0,0,0,0,0,0,0,0,0,0,0,0,0,0,0,0,0,0,0,0,0,0,0,0,0,0,0,0,0,0,0,0,0,0,0,0,0,0,0,0,0,0,0,0,0,0,0,0,0,0,0,0,0,0,0,0,0,0,0,0,0,0,0,0,0,0,0,0,0,0,0,0,0,0,0,0,0,0,0,0,0,0,0,0,0,0,0,0,0,0,0,0,0,0,0,0,0,0,0,0,0,0,0,0,0,0,0,0,0,0,0,0,0,0,0,0,0,0,0,0,0,0,0,0,0,0,0,0,0,0,0,0,0,0,0,0,0,0,0,0,0,0,0,0,0,0,0,0,0,0,0,0,0,0,0,0,0,0,0,0,0,0,0,0,0,0,0,0,0,0,0,0,0,0,0,0,0,0,0,0,0,0,0,0,0,0,0,0,0,0,0,0,0,0,0,0,0,0,0,0,0,0,0,0,0,0,0,0,0,0,0,0,0,0,0,0,0,0,0,0,0,0,0,0,0,0,0,0,0,0,0,0,0,0,0,0,0,0,0,0,0,0,0,0,0,0,0,0,0,0,0,0,0,0,0,0,0,0,0,0,0,0,0,0,0,0,0,0,0,0,0,0,0,0,0,0,0,0,0,0,0,0,0,0,0,0,0,0,0,0,0,0,0,0,0,0,0,0,0,0,0,0,0,0,0,0,0,0,0,0,0,0,0,0,0,0,0,0,0,0,0,0,0,0,0,0,0,0,0,0,0,0,0,0,0,0,0,0,0,0,0,0,0,0,0,0,0,0,0,0,0,0,0,0,0,0,0,0,0,0,0,0,0,0,0,0,0,0,0,0,0,0,0,0,0,0,0,0,0,0,0,0,0,0,0,0,0,0,0,0,0,0,0,0,0,0,0,0,0,0,0,0,0,0,0,0,0,0,0,0,0,0,0,0,0,0,0,0,0,0,0,0,0,0,0,0,0,0,0,0,0,0,0,0,0,0,0,0,0,0,0,0,0,0,0,0,0,0,0,0,0,0,0,0,0,0,0,0,0,0,0,0,0,0,0,0,0,0,0,0,0,0,0,0,0,0,0,0,0,0,0,0,0,0,0,0,0,0,0,0,0,0,0,0,0,0,0,0,0,0,0,0,0,0,0,0,0,0,0,0,0,0,0,0,0,0,0,0,0,0,0,0,0,0,0,0,0,0,0,0,0,0,0,0,0,0,0,0,0,0,0,0,0,0,0,0,0,0,0,0,0,0,0,0,0,0,0,0,0,0,0,0,0,0,0,0,128,0,0,0,100,235,156,59,99,72,100,59,223,133,89,59,24,244,25,59,88,44,20,59,105,159,112,59,24,236,61,59,244,201,124,59,13,61,40,59,27,59,7,59,32,240,14,59,166,72,129,59,206,199,89,59,203,79,68,59,52,206,94,59,20,87,139,58,107,139,104,59,227,9,67,59,252,104,37,59,81,191,75,59,178,61,130,59,177,189,2,59,45,189,113,59,54,226,26,59,95,66,158,59,251,178,90,59,51,233,235,58,133,200,51,59,177,5,213,58,174,85,52,59,182,210,237,58,144,107,82,59,103,158,235,58,90,7,28,59,215,163,178,58,84,126,24,59,237,217,79,59,214,41,8,59,55,199,108,59,67,6,220,58,44,130,79,59,27,70,23,59,251,138,225,58,237,102,215,58,144,11,0,59,86,185,233,58,144,221,164,58,119,135,204,58,11,39,12,59,117,46,2,59,19,166,64,59,111,175,47,59,111,73,0,59,34,130,245,58,35,25,208,58,21,247,71,59,109,63,16,59,113,176,6,59,37,93,0,59,201,210,203,58,54,175,218,58,172,171,63,59,126,183,48,59,70,119,47,59,32,218,210,58,216,74,12,59,235,181,237,58,190,15,236,58,217,154,14,59,248,93,169,58,52,67,5,59,176,62,189,58,246,148,15,59,219,66,253,58,127,142,252,58,176,37,197,58,111,205,4,59,236,23,173,58,128,104,242,58,137,129,184,58,162,194,193,58,15,184,11,59,170,11,2,59,116,27,181,58,211,210,171,58,65,60,217,58,39,14,201,58,118,114,253,58,226,241,234,58,232,156,164,58,120,12,2,59,106,111,250,58,228,106,218,58,91,73,254,58,158,104,26,59,219,68,218,58,88,151,129,59,65,161,232,58,80,168,244,58,209,251,24,59,105,14,53,59,68,54,34,59,73,198,88,59,236,221,104,59,103,27,52,59,99,26,28,59,84,149,216,58,246,140,112,59,176,227,27,59,112,134,75,59,45,177,1,59,45,57,79,59,142,123,96,59,107,52,89,59,43,238,131,59,28,58,81,59,218,133,110,59,248,81,21,59,195,126,177,59,94,112,21,59,68,215,130,59,54,213,83,59,168,230,178,58,55,8,59,59,153,186,30,59,215,91,97,59,89,129,236,58,186,69,51,59,17,0,0,0,116,102,108,46,112,115,101,117,100,111,95,113,99,111,110,115,116,0,0,0,2,0,0,0,128,0,0,0,32,0,0,0,234,229,255,255,0,0,0,1,16,0,0,0,16,0,0,0,64,0,0,0,32,0,0,0,176,227,255,255,16,0,0,0,97,114,105,116,104,46,99,111,110,115,116,97,110,116,49,57,0,0,0,0,2,0,0,0,128,0,0,0,1,0,0,0,42,230,255,255,0,0,0,1,16,0,0,0,16,0,0,0,63,0,0,0,32,0,0,0,240,227,255,255,16,0,0,0,97,114,105,116,104,46,99,111,110,115,116,97,110,116,49,56,0,0,0,0,1,0,0,0,128,0,0,0,154,229,255,255,0,0,0,1,20,0,0,0,20,0,0,0,13,0,0,0,0,0,0,2,32,0,0,0,48,228,255,255,16,0,0,0,97,114,105,116,104,46,99,111,110,115,116,97,110,116,49,55,0,0,0,0,0,0,0,0,130,229,255,255,0,0,0,1,20,0,0,0,32,0,0,0,32,0,0,0,61,0,0,0,36,0,0,0,3,0,0,0,10,0,0,0,255,255,255,255,1,0,0,0,124,228,255,255,4,0,0,0,97,114,103,53,0,0,0,0,3,0,0,0,10,0,0,0,1,0,0,0,1,0,0,0,206,229,255,255,0,0,0,1,20,0,0,0,28,0,0,0,28,0,0,0,60,0,0,0,32,0,0,0,2,0,0,0,255,255,255,255,32,0,0,0,196,228,255,255,4,0,0,0,97,114,103,52,0,0,0,0,2,0,0,0,1,0,0,0,32,0,0,0,18,230,255,255,0,0,0,1,20,0,0,0,28,0,0,0,28,0,0,0,59,0,0,0,32,0,0,0,2,0,0,0,255,255,255,255,32,0,0,0,8,229,255,255,4,0,0,0,97,114,103,51,0,0,0,0,2,0,0,0,1,0,0,0,32,0,0,0,40,235,255,255,28,0,0,0,0,0,0,1,52,0,0,0,52,0,0,0,58,0,0,0,0,0,0,14,52,0,0,0,1,0,0,0,4,0,0,0,14,235,255,255,0,0,0,1,4,0,0,0,2,0,0,0,0,0,0,0,32,0,0,0,100,229,255,255,4,0,0,0,97,114,103,50,0,0,0,0,0,0,0,0,254,230,255,255,0,0,0,1,20,0,0,0,20,0,0,0,57,0,0,0,0,0,0,2,20,0,0,0,148,229,255,255,4,0,0,0,97,114,103,49,0,0,0,0,0,0,0,0,46,231,255,255,0,0,0,1,20,0,0,0,20,0,0,0,56,0,0,0,0,0,0,2,20,0,0,0,196,229,255,255,4,0,0,0,97,114,103,48,0,0,0,0,0,0,0,0,62,252,255,255,20,0,0,0,56,0,0,0,176,0,0,0,180,0,0,0,204,0,0,0,35,0,0,0,115,101,113,117,101,110,116,105,97,108,95,53,95,49,47,108,115,116,109,95,49,48,95,49,47,119,104,105,108,101,95,99,111,110,100,0,3,0,0,0,84,0,0,0,44,0,0,0,4,0,0,0,230,247,255,255,12,0,0,0,16,0,0,0,10,0,0,0,1,0,0,0,9,0,0,0,2,0,0,0,8,0,0,0,7,0,0,0,10,248,255,255,12,0,0,0,16,0,0,0,9,0,0,0,1,0,0,0,8,0,0,0,2,0,0,0,0,0,0,0,6,0,0,0,46,248,255,255,12,0,0,0,16,0,0,0,9,0,0,0,1,0,0,0,7,0,0,0,2,0,0,0,1,0,0,0,6,0,0,0,1,0,0,0,9,0,0,0,6,0,0,0,0,0,0,0,1,0,0,0,2,0,0,0,3,0,0,0,4,0,0,0,5,0,0,0,10,0,0,0,172,2,0,0,120,2,0,0,32,2,0,0,216,1,0,0,144,1,0,0,64,1,0,0,0,1,0,0,176,0,0,0,92,0,0,0,4,0,0,0,106,232,255,255,0,0,0,1,20,0,0,0,20,0,0,0,55,0,0,0,0,0,0,6,56,0,0,0,0,231,255,255,41,0,0,0,115,101,113,117,101,110,116,105,97,108,95,53,95,49,47,108,115,116,109,95,49,48,95,49,47,119,104,105,108,101,47,76,111,103,105,99,97,108,65,110,100,0,0,0,0,0,0,0,190,232,255,255,0,0,0,1,20,0,0,0,20,0,0,0,54,0,0,0,0,0,0,6,52,0,0,0,84,231,255,255,37,0,0,0,115,101,113,117,101,110,116,105,97,108,95,53,95,49,47,108,115,116,109,95,49,48,95,49,47,119,104,105,108,101,47,76,101,115,115,95,49,0,0,0,0,0,0,0,14,233,255,255,0,0,0,1,20,0,0,0,20,0,0,0,53,0,0,0,0,0,0,6,48,0,0,0,164,231,255,255,35,0,0,0,115,101,113,117,101,110,116,105,97,108,95,53,95,49,47,108,115,116,109,95,49,48,95,49,47,119,104,105,108,101,47,76,101,115,115,0,0,0,0,0,90,233,255,255,0,0,0,1,20,0,0,0,20,0,0,0,7,0,0,0,0,0,0,2,32,0,0,0,240,231,255,255,16,0,0,0,97,114,105,116,104,46,99,111,110,115,116,97,110,116,49,54,0,0,0,0,0,0,0,0,66,233,255,255,0,0,0,1,20,0,0,0,32,0,0,0,32,0,0,0,51,0,0,0,36,0,0,0,3,0,0,0,10,0,0,0,255,255,255,255,1,0,0,0,60,232,255,255,4,0,0,0,97,114,103,53,0,0,0,0,3,0,0,0,10,0,0,0,1,0,0,0,1,0,0,0,142,233,255,255,0,0,0,1,20,0,0,0,28,0,0,0,28,0,0,0,50,0,0,0,32,0,0,0,2,0,0,0,255,255,255,255,32,0,0,0,132,232,255,255,4,0,0,0,97,114,103,52,0,0,0,0,2,0,0,0,1,0,0,0,32,0,0,0,210,233,255,255,0,0,0,1,20,0,0,0,28,0,0,0,28,0,0,0,49,0,0,0,32,0,0,0,2,0,0,0,255,255,255,255,32,0,0,0,200,232,255,255,4,0,0,0,97,114,103,51,0,0,0,0,2,0,0,0,1,0,0,0,32,0,0,0,232,238,255,255,28,0,0,0,0,0,0,1,52,0,0,0,52,0,0,0,48,0,0,0,0,0,0,14,52,0,0,0,1,0,0,0,4,0,0,0,206,238,255,255,0,0,0,1,4,0,0,0,2,0,0,0,0,0,0,0,32,0,0,0,36,233,255,255,4,0,0,0,97,114,103,50,0,0,0,0,0,0,0,0,190,234,255,255,0,0,0,1,20,0,0,0,20,0,0,0,47,0,0,0,0,0,0,2,20,0,0,0,84,233,255,255,4,0,0,0,97,114,103,49,0,0,0,0,0,0,0,0,238,234,255,255,0,0,0,1,20,0,0,0,20,0,0,0,46,0,0,0,0,0,0,2,20,0,0,0,132,233,255,255,4,0,0,0,97,114,103,48,0,0,0,0,0,0,0,0,0,0,14,0,24,0,20,0,16,0,12,0,8,0,4,0,14,0,0,0,20,0,0,0,28,0,0,0,248,5,0,0,252,5,0,0,0,6,0,0,4,0,0,0,109,97,105,110,0,0,0,0,18,0,0,0,168,5,0,0,8,5,0,0,168,4,0,0,112,4,0,0,36,4,0,0,252,3,0,0,108,3,0,0,4,3,0,0,120,2,0,0,80,2,0,0,32,2,0,0,224,1,0,0,168,1,0,0,128,1,0,0,32,1,0,0,148,0,0,0,60,0,0,0,4,0,0,0,166,251,255,255,20,0,0,0,0,0,0,8,16,0,0,0,20,0,0,0,8,0,0,0,48,234,255,255,1,0,0,0,44,0,0,0,3,0,0,0,43,0,0,0,4,0,0,0,5,0,0,0,218,251,255,255,36,0,0,0,0,0,0,32,44,0,0,0,48,0,0,0,2,0,0,0,0,0,14,0,16,0,12,0,8,0,0,0,0,0,4,0,14,0,0,0,1,0,0,0,6,0,0,0,6,0,0,0,1,0,0,0,43,0,0,0,4,0,0,0,42,0,0,0,3,0,0,0,2,0,0,0,1,0,0,0,212,251,255,255,16,0,0,0,108,0,0,0,112,0,0,0,7,0,0,0,91,0,0,0,15,84,101,110,115,111,114,76,105,115,116,83,116,97,99,107,0,64,18,15,84,101,110,115,111,114,76,105,115,116,83,116,97,99,107,26,0,26,0,42,18,10,12,110,117,109,95,101,108,101,109,101,110,116,115,18,2,24,1,42,19,10,13,101,108,101,109,101,110,116,95,100,116,121,112,101,18,2,48,1,50,0,0,2,83,67,20,20,4,40,1,0,1,0,0,0,42,0,0,0,2,0,0,0,38,0,0,0,8,0,0,0,182,252,255,255,20,0,0,0,0,0,0,93,24,0,0,0,48,0,0,0,6,0,0,0,56,254,255,255,4,0,0,0,3,0,0,0,6,0,0,0,36,0,0,0,37,0,0,0,38,0,0,0,39,0,0,0,40,0,0,0,41,0,0,0,6,0,0,0,16,0,0,0,16,0,0,0,23,0,0,0,35,0,0,0,35,0,0,0,30,0,0,0,66,253,255,255,12,0,0,0,16,0,0,0,5,0,0,0,1,0,0,0,35,0,0,0,2,0,0,0,34,0,0,0,10,0,0,0,54,253,255,255,20,0,0,0,0,0,0,59,20,0,0,0,24,0,0,0,4,0,0,0,162,253,255,255,2,0,0,0,1,0,0,0,34,0,0,0,2,0,0,0,33,0,0,0,7,0,0,0,106,253,255,255,20,0,0,0,0,0,0,32,20,0,0,0,24,0,0,0,2,0,0,0,90,253,255,255,1,0,0,0,1,0,0,0,33,0,0,0,4,0,0,0,32,0,0,0,13,0,0,0,12,0,0,0,12,0,0,0,174,252,255,255,16,0,0,0,0,0,0,55,16,0,0,0,20,0,0,0,158,252,255,255,0,0,0,2,1,0,0,0,32,0,0,0,1,0,0,0,31,0,0,0,2,254,255,255,12,0,0,0,16,0,0,0,3,0,0,0,1,0,0,0,31,0,0,0,2,0,0,0,30,0,0,0,11,0,0,0,156,253,255,255,16,0,0,0,108,0,0,0,112,0,0,0,7,0,0,0,91,0,0,0,15,84,101,110,115,111,114,76,105,115,116,83,116,97,99,107,0,64,18,15,84,101,110,115,111,114,76,105,115,116,83,116,97,99,107,26,0,26,0,42,18,10,12,110,117,109,95,101,108,101,109,101,110,116,115,18,2,24,10,42,19,10,13,101,108,101,109,101,110,116,95,100,116,121,112,101,18,2,48,1,50,0,0,2,83,67,20,20,4,40,1,0,1,0,0,0,30,0,0,0,2,0,0,0,26,0,0,0,15,0,0,0,126,254,255,255,28,0,0,0,0,0,0,93,32,0,0,0,56,0,0,0,6,0,0,0,8,0,12,0,8,0,4,0,8,0,0,0,2,0,0,0,1,0,0,0,6,0,0,0,24,0,0,0,25,0,0,0,26,0,0,0,27,0,0,0,28,0,0,0,29,0,0,0,6,0,0,0,16,0,0,0,16,0,0,0,18,0,0,0,22,0,0,0,22,0,0,0,20,0,0,0,136,254,255,255,16,0,0,0,112,0,0,0,116,0,0,0,1,0,0,0,93,0,0,0,17,84,101,110,115,111,114,76,105,115,116,82,101,115,101,114,118,101,0,64,18,17,84,101,110,115,111,114,76,105,115,116,82,101,115,101,114,118,101,26,0,26,0,42,19,10,13,101,108,101,109,101,110,116,95,100,116,121,112,101,18,2,48,1,42,16,10,10,115,104,97,112,101,95,116,121,112,101,18,2,48,3,50,0,0,2,85,67,20,20,4,40,1,0,0,0,1,0,0,0,23,0,0,0,2,0,0,0,8,0,0,0,14,0,0,0,158,255,255,255,12,0,0,0,16,0,0,0,5,0,0,0,1,0,0,0,22,0,0,0,2,0,0,0,21,0,0,0,10,0,0,0,146,255,255,255,28,0,0,0,0,0,0,59,28,0,0,0,32,0,0,0,4,0,0,0,0,0,6,0,8,0,4,0,6,0,0,0,2,0,0,0,1,0,0,0,21,0,0,0,2,0,0,0,19,0,0,0,9,0,0,0,0,0,10,0,16,0,12,0,8,0,4,0,10,0,0,0,12,0,0,0,16,0,0,0,3,0,0,0,1,0,0,0,20,0,0,0,2,0,0,0,0,0,0,0,11,0,0,0,0,0,14,0,26,0,20,0,16,0,12,0,11,0,4,0,14,0,0,0,36,0,0,0,0,0,0,32,36,0,0,0,40,0,0,0,2,0,0,0,0,0,14,0,8,0,0,0,0,0,0,0,0,0,4,0,14,0,0,0,1,0,0,0,1,0,0,0,19,0,0,0,4,0,0,0,17,0,0,0,13,0,0,0,12,0,0,0,12,0,0,0,16,0,20,0,16,0,12,0,8,0,0,0,0,0,4,0,16,0,0,0,16,0,0,0,112,0,0,0,116,0,0,0,1,0,0,0,93,0,0,0,17,84,101,110,115,111,114,76,105,115,116,82,101,115,101,114,118,101,0,64,18,17,84,101,110,115,111,114,76,105,115,116,82,101,115,101,114,118,101,26,0,26,0,42,19,10,13,101,108,101,109,101,110,116,95,100,116,121,112,101,18,2,48,1,42,16,10,10,115,104,97,112,101,95,116,121,112,101,18,2,48,3,50,0,0,2,85,67,20,20,4,40,1,0,0,0,1,0,0,0,18,0,0,0,2,0,0,0,15,0,0,0,6,0,0,0,0,0,14,0,22,0,0,0,16,0,12,0,11,0,4,0,14,0,0,0,24,0,0,0,0,0,0,55,24,0,0,0,28,0,0,0,0,0,6,0,8,0,7,0,6,0,0,0,0,0,0,2,1,0,0,0,17,0,0,0,1,0,0,0,0,0,0,0,1,0,0,0,44,0,0,0,1,0,0,0,0,0,0,0,45,0,0,0,36,15,0,0,204,14,0,0,116,14,0,0,52,14,0,0,244,13,0,0,160,13,0,0,100,13,0,0,40,13,0,0,232,12,0,0,172,12,0,0,116,12,0,0,48,12,0,0,236,11,0,0,168,11,0,0,104,11,0,0,36,11,0,0,228,10,0,0,148,10,0,0,12,10,0,0,160,9,0,0,52,9,0,0,220,8,0,0,124,8,0,0,0,8,0,0,180,7,0,0,104,7,0,0,248,6,0,0,152,6,0,0,56,6,0,0,208,5,0,0,76,5,0,0,220,4,0,0,140,4,0,0,56,4,0,0,224,3,0,0,128,3,0,0,52,3,0,0,232,2,0,0,120,2,0,0,24,2,0,0,184,1,0,0,80,1,0,0,204,0,0,0,96,0,0,0,4,0,0,0,166,241,255,255,0,0,0,1,20,0,0,0,28,0,0,0,28,0,0,0,45,0,0,0,52,0,0,0,2,0,0,0,255,255,255,255,1,0,0,0,156,240,255,255,27,0,0,0,83,116,97,116,101,102,117,108,80,97,114,116,105,116,105,111,110,101,100,67,97,108,108,95,49,58,48,0,2,0,0,0,1,0,0,0,1,0,0,0,254,241,255,255,0,0,0,1,20,0,0,0,28,0,0,0,28,0,0,0,44,0,0,0,68,0,0,0,2,0,0,0,255,255,255,255,16,0,0,0,244,240,255,255,40,0,0,0,115,101,113,117,101,110,116,105,97,108,95,53,95,49,47,108,115,116,109,95,49,49,95,49,47,115,116,114,105,100,101,100,95,115,108,105,99,101,95,51,0,0,0,0,2,0,0,0,1,0,0,0,16,0,0,0,102,242,255,255,0,0,0,1,20,0,0,0,32,0,0,0,32,0,0,0,43,0,0,0,88,0,0,0,3,0,0,0,1,0,0,0,255,255,255,255,16,0,0,0,96,241,255,255,59,0,0,0,115,101,113,117,101,110,116,105,97,108,95,53,95,49,47,108,115,116,109,95,49,49,95,49,47,84,101,110,115,111,114,65,114,114,97,121,86,50,83,116,97,99,107,47,84,101,110,115,111,114,76,105,115,116,83,116,97,99,107,0,3,0,0,0,1,0,0,0,1,0,0,0,16,0,0,0,230,242,255,255,0,0,0,1,20,0,0,0,32,0,0,0,32,0,0,0,42,0,0,0,60,0,0,0,3,0,0,0,10,0,0,0,255,255,255,255,32,0,0,0,224,241,255,255,31,0,0,0,115,101,113,117,101,110,116,105,97,108,95,53,95,49,47,108,115,116,109,95,49,49,95,49,47,119,104,105,108,101,53,0,3,0,0,0,10,0,0,0,1,0,0,0,32,0,0,0,74,243,255,255,0,0,0,1,20,0,0,0,28,0,0,0,28,0,0,0,41,0,0,0,56,0,0,0,2,0,0,0,255,255,255,255,16,0,0,0,64,242,255,255,31,0,0,0,115,101,113,117,101,110,116,105,97,108,95,53,95,49,47,108,115,116,109,95,49,49,95,49,47,119,104,105,108,101,52,0,2,0,0,0,1,0,0,0,16,0,0,0,166,243,255,255,0,0,0,1,20,0,0,0,28,0,0,0,28,0,0,0,40,0,0,0,56,0,0,0,2,0,0,0,255,255,255,255,16,0,0,0,156,242,255,255,31,0,0,0,115,101,113,117,101,110,116,105,97,108,95,53,95,49,47,108,115,116,109,95,49,49,95,49,47,119,104,105,108,101,51,0,2,0,0,0,1,0,0,0,16,0,0,0,212,248,255,255,28,0,0,0,0,0,0,1,52,0,0,0,52,0,0,0,39,0,0,0,0,0,0,14,76,0,0,0,1,0,0,0,4,0,0,0,186,248,255,255,0,0,0,1,4,0,0,0,2,0,0,0,0,0,0,0,16,0,0,0,16,243,255,255,31,0,0,0,115,101,113,117,101,110,116,105,97,108,95,53,95,49,47,108,115,116,109,95,49,49,95,49,47,119,104,105,108,101,50,0,0,0,0,0,194,244,255,255,0,0,0,1,20,0,0,0,20,0,0,0,38,0,0,0,0,0,0,2,44,0,0,0,88,243,255,255,31,0,0,0,115,101,113,117,101,110,116,105,97,108,95,53,95,49,47,108,115,116,109,95,49,49,95,49,47,119,104,105,108,101,49,0,0,0,0,0,10,245,255,255,0,0,0,1,20,0,0,0,20,0,0,0,37,0,0,0,0,0,0,2,44,0,0,0,160,243,255,255,30,0,0,0,115,101,113,117,101,110,116,105,97,108,95,53,95,49,47,108,115,116,109,95,49,49,95,49,47,119,104,105,108,101,0,0,0,0,0,0,254,244,255,255,0,0,0,1,20,0,0,0,28,0,0,0,28,0,0,0,36,0,0,0,56,0,0,0,2,0,0,0,255,255,255,255,16,0,0,0,244,243,255,255,30,0,0,0,115,101,113,117,101,110,116,105,97,108,95,53,95,49,47,108,115,116,109,95,49,49,95,49,47,122,101,114,111,115,0,0,2,0,0,0,1,0,0,0,16,0,0,0,174,245,255,255,0,0,0,1,20,0,0,0,20,0,0,0,35,0,0,0,0,0,0,2,52,0,0,0,68,244,255,255,37,0,0,0,115,101,113,117,101,110,116,105,97,108,95,53,95,49,47,108,115,116,109,95,49,49,95,49,47,122,101,114,111,115,47,112,97,99,107,101,100,0,0,0,1,0,0,0,2,0,0,0,2,246,255,255,0,0,0,1,20,0,0,0,20,0,0,0,34,0,0,0,0,0,0,2,52,0,0,0,152,244,255,255,38,0,0,0,115,101,113,117,101,110,116,105,97,108,95,53,95,49,47,108,115,116,109,95,49,49,95,49,47,115,116,114,105,100,101,100,95,115,108,105,99,101,0,0,0,0,0,0,82,246,255,255,0,0,0,1,20,0,0,0,20,0,0,0,33,0,0,0,0,0,0,2,44,0,0,0,232,244,255,255,30,0,0,0,115,101,113,117,101,110,116,105,97,108,95,53,95,49,47,108,115,116,109,95,49,49,95,49,47,83,104,97,112,101,0,0,1,0,0,0,3,0,0,0,74,246,255,255,0,0,0,1,20,0,0,0,32,0,0,0,32,0,0,0,32,0,0,0,68,0,0,0,3,0,0,0,255,255,255,255,10,0,0,0,32,0,0,0,68,245,255,255,36,0,0,0,115,101,113,117,101,110,116,105,97,108,95,53,95,49,47,108,115,116,109,95,49,48,95,49,47,116,114,97,110,115,112,111,115,101,95,49,0,0,0,0,3,0,0,0,1,0,0,0,10,0,0,0,32,0,0,0,182,246,255,255,0,0,0,1,20,0,0,0,32,0,0,0,32,0,0,0,31,0,0,0,88,0,0,0,3,0,0,0,10,0,0,0,255,255,255,255,32,0,0,0,176,245,255,255,59,0,0,0,115,101,113,117,101,110,116,105,97,108,95,53,95,49,47,108,115,116,109,95,49,48,95,49,47,84,101,110,115,111,114,65,114,114,97,121,86,50,83,116,97,99,107,47,84,101,110,115,111,114,76,105,115,116,83,116,97,99,107,0,3,0,0,0,10,0,0,0,1,0,0,0,32,0,0,0,54,247,255,255,0,0,0,1,20,0,0,0,32,0,0,0,32,0,0,0,30,0,0,0,60,0,0,0,3,0,0,0,10,0,0,0,255,255,255,255,1,0,0,0,48,246,255,255,31,0,0,0,115,101,113,117,101,110,116,105,97,108,95,53,95,49,47,108,115,116,109,95,49,48,95,49,47,119,104,105,108,101,53,0,3,0,0,0,10,0,0,0,1,0,0,0,1,0,0,0,154,247,255,255,0,0,0,1,20,0,0,0,28,0,0,0,28,0,0,0,29,0,0,0,56,0,0,0,2,0,0,0,255,255,255,255,32,0,0,0,144,246,255,255,31,0,0,0,115,101,113,117,101,110,116,105,97,108,95,53,95,49,47,108,115,116,109,95,49,48,95,49,47,119,104,105,108,101,52,0,2,0,0,0,1,0,0,0,32,0,0,0,246,247,255,255,0,0,0,1,20,0,0,0,28,0,0,0,28,0,0,0,28,0,0,0,56,0,0,0,2,0,0,0,255,255,255,255,32,0,0,0,236,246,255,255,31,0,0,0,115,101,113,117,101,110,116,105,97,108,95,53,95,49,47,108,115,116,109,95,49,48,95,49,47,119,104,105,108,101,51,0,2,0,0,0,1,0,0,0,32,0,0,0,36,253,255,255,28,0,0,0,0,0,0,1,52,0,0,0,52,0,0,0,27,0,0,0,0,0,0,14,76,0,0,0,1,0,0,0,4,0,0,0,10,253,255,255,0,0,0,1,4,0,0,0,2,0,0,0,0,0,0,0,32,0,0,0,96,247,255,255,31,0,0,0,115,101,113,117,101,110,116,105,97,108,95,53,95,49,47,108,115,116,109,95,49,48,95,49,47,119,104,105,108,101,50,0,0,0,0,0,18,249,255,255,0,0,0,1,20,0,0,0,20,0,0,0,26,0,0,0,0,0,0,2,44,0,0,0,168,247,255,255,31,0,0,0,115,101,113,117,101,110,116,105,97,108,95,53,95,49,47,108,115,116,109,95,49,48,95,49,47,119,104,105,108,101,49,0,0,0,0,0,90,249,255,255,0,0,0,1,20,0,0,0,20,0,0,0,25,0,0,0,0,0,0,2,44,0,0,0,240,247,255,255,30,0,0,0,115,101,113,117,101,110,116,105,97,108,95,53,95,49,47,108,115,116,109,95,49,48,95,49,47,119,104,105,108,101,0,0,0,0,0,0,32,254,255,255,28,0,0,0,0,0,0,1,52,0,0,0,52,0,0,0,24,0,0,0,0,0,0,14,88,0,0,0,1,0,0,0,4,0,0,0,6,254,255,255,0,0,0,1,4,0,0,0,2,0,0,0,0,0,0,0,16,0,0,0,92,248,255,255,40,0,0,0,115,101,113,117,101,110,116,105,97,108,95,53,95,49,47,108,115,116,109,95,49,49,95,49,47,84,101,110,115,111,114,65,114,114,97,121,86,50,95,49,0,0,0,0,0,0,0,0,198,249,255,255,0,0,0,1,20,0,0,0,28,0,0,0,28,0,0,0,23,0,0,0,56,0,0,0,2,0,0,0,255,255,255,255,32,0,0,0,188,248,255,255,30,0,0,0,115,101,113,117,101,110,116,105,97,108,95,53,95,49,47,108,115,116,109,95,49,48,95,49,47,122,101,114,111,115,0,0,2,0,0,0,1,0,0,0,32,0,0,0,118,250,255,255,0,0,0,1,20,0,0,0,20,0,0,0,22,0,0,0,0,0,0,2,52,0,0,0,12,249,255,255,37,0,0,0,115,101,113,117,101,110,116,105,97,108,95,53,95,49,47,108,115,116,109,95,49,48,95,49,47,122,101,114,111,115,47,112,97,99,107,101,100,0,0,0,1,0,0,0,2,0,0,0,118,250,255,255,0,0,0,1,20,0,0,0,32,0,0,0,32,0,0,0,21,0,0,0,64,0,0,0,3,0,0,0,10,0,0,0,255,255,255,255,1,0,0,0,112,249,255,255,34,0,0,0,115,101,113,117,101,110,116,105,97,108,95,53,95,49,47,108,115,116,109,95,49,48,95,49,47,116,114,97,110,115,112,111,115,101,0,0,3,0,0,0,10,0,0,0,1,0,0,0,1,0,0,0,50,251,255,255,0,0,0,1,20,0,0,0,20,0,0,0,20,0,0,0,0,0,0,2,52,0,0,0,200,249,255,255,38,0,0,0,115,101,113,117,101,110,116,105,97,108,95,53,95,49,47,108,115,116,109,95,49,48,95,49,47,115,116,114,105,100,101,100,95,115,108,105,99,101,0,0,0,0,0,0,24,0,32,0,28,0,27,0,20,0,16,0,12,0,0,0,0,0,0,0,11,0,4,0,24,0,0,0,28,0,0,0,0,0,0,1,64,0,0,0,64,0,0,0,19,0,0,0,0,0,0,14,100,0,0,0,1,0,0,0,16,0,0,0,0,0,10,0,12,0,8,0,0,0,7,0,10,0,0,0,0,0,0,1,4,0,0,0,2,0,0,0,0,0,0,0,32,0,0,0,96,250,255,255,40,0,0,0,115,101,113,117,101,110,116,105,97,108,95,53,95,49,47,108,115,116,109,95,49,48,95,49,47,84,101,110,115,111,114,65,114,114,97,121,86,50,95,49,0,0,0,0,0,0,0,0,30,252,255,255,0,0,0,1,20,0,0,0,20,0,0,0,18,0,0,0,0,0,0,2,44,0,0,0,180,250,255,255,30,0,0,0,115,101,113,117,101,110,116,105,97,108,95,53,95,49,47,108,115,116,109,95,49,48,95,49,47,83,104,97,112,101,0,0,1,0,0,0,3,0,0,0,106,252,255,255,0,0,0,1,20,0,0,0,20,0,0,0,11,0,0,0,0,0,0,2,32,0,0,0,0,251,255,255,16,0,0,0,97,114,105,116,104,46,99,111,110,115,116,97,110,116,49,53,0,0,0,0,0,0,0,0,166,252,255,255,0,0,0,1,20,0,0,0,20,0,0,0,16,0,0,0,0,0,0,2,32,0,0,0,60,251,255,255,16,0,0,0,97,114,105,116,104,46,99,111,110,115,116,97,110,116,49,52,0,0,0,0,1,0,0,0,2,0,0,0,230,252,255,255,0,0,0,1,20,0,0,0,20,0,0,0,13,0,0,0,0,0,0,2,32,0,0,0,124,251,255,255,16,0,0,0,97,114,105,116,104,46,99,111,110,115,116,97,110,116,49,51,0,0,0,0,0,0,0,0,34,253,255,255,0,0,0,1,20,0,0,0,20,0,0,0,11,0,0,0,0,0,0,2,32,0,0,0,184,251,255,255,16,0,0,0,97,114,105,116,104,46,99,111,110,115,116,97,110,116,49,50,0,0,0,0,1,0,0,0,1,0,0,0,98,253,255,255,0,0,0,1,20,0,0,0,20,0,0,0,13,0,0,0,0,0,0,2,32,0,0,0,248,251,255,255,16,0,0,0,97,114,105,116,104,46,99,111,110,115,116,97,110,116,49,49,0,0,0,0,1,0,0,0,1,0,0,0,162,253,255,255,0,0,0,1,20,0,0,0,20,0,0,0,12,0,0,0,0,0,0,2,32,0,0,0,56,252,255,255,16,0,0,0,97,114,105,116,104,46,99,111,110,115,116,97,110,116,49,48,0,0,0,0,1,0,0,0,3,0,0,0,174,254,255,255,0,0,0,1,16,0,0,0,16,0,0,0,11,0,0,0,28,0,0,0,116,252,255,255,15,0,0,0,97,114,105,116,104,46,99,111,110,115,116,97,110,116,57,0,0,0,0,0,22,254,255,255,0,0,0,1,20,0,0,0,20,0,0,0,10,0,0,0,0,0,0,2,28,0,0,0,172,252,255,255,15,0,0,0,97,114,105,116,104,46,99,111,110,115,116,97,110,116,56,0,0,0,0,0,78,254,255,255,0,0,0,1,20,0,0,0,20,0,0,0,9,0,0,0,0,0,0,2,28,0,0,0,228,252,255,255,15,0,0,0,97,114,105,116,104,46,99,111,110,115,116,97,110,116,55,0,1,0,0,0,2,0,0,0,138,254,255,255,0,0,0,1,20,0,0,0,20,0,0,0,8,0,0,0,0,0,0,2,28,0,0,0,32,253,255,255,15,0,0,0,97,114,105,116,104,46,99,111,110,115,116,97,110,116,54,0,0,0,0,0,194,254,255,255,0,0,0,1,20,0,0,0,20,0,0,0,7,0,0,0,0,0,0,2,28,0,0,0,88,253,255,255,15,0,0,0,97,114,105,116,104,46,99,111,110,115,116,97,110,116,53,0,0,0,0,0,198,255,255,255,0,0,0,1,16,0,0,0,16,0,0,0,6,0,0,0,28,0,0,0,140,253,255,255,15,0,0,0,97,114,105,116,104,46,99,111,110,115,116,97,110,116,52,0,1,0,0,0,1,0,0,0,0,0,22,0,24,0,20,0,0,0,16,0,12,0,8,0,0,0,0,0,0,0,7,0,22,0,0,0,0,0,0,1,16,0,0,0,16,0,0,0,5,0,0,0,28,0,0,0,220,253,255,255,15,0,0,0,97,114,105,116,104,46,99,111,110,115,116,97,110,116,51,0,2,0,0,0,1,0,0,0,16,0,0,0,134,255,255,255,0,0,0,1,20,0,0,0,20,0,0,0,4,0,0,0,0,0,0,2,28,0,0,0,28,254,255,255,15,0,0,0,97,114,105,116,104,46,99,111,110,115,116,97,110,116,50,0,1,0,0,0,3,0,0,0,194,255,255,255,0,0,0,1,20,0,0,0,20,0,0,0,3,0,0,0,0,0,0,2,28,0,0,0,88,254,255,255,15,0,0,0,97,114,105,116,104,46,99,111,110,115,116,97,110,116,49,0,1,0,0,0,3,0,0,0,0,0,22,0,28,0,24,0,23,0,16,0,12,0,8,0,0,0,0,0,0,0,7,0,22,0,0,0,0,0,0,1,20,0,0,0,20,0,0,0,2,0,0,0,0,0,0,2,28,0,0,0,172,254,255,255,14,0,0,0,97,114,105,116,104,46,99,111,110,115,116,97,110,116,0,0,1,0,0,0,3,0,0,0,0,0,22,0,28,0,24,0,0,0,20,0,16,0,12,0,0,0,0,0,8,0,7,0,22,0,0,0,0,0,0,1,20,0,0,0,32,0,0,0,32,0,0,0,1,0,0,0,64,0,0,0,3,0,0,0,255,255,255,255,10,0,0,0,1,0,0,0,16,255,255,255,33,0,0,0,115,101,114,118,105,110,103,95,100,101,102,97,117,108,116,95,107,101,114,97,115,95,116,101,110,115,111,114,95,50,48,58,48,0,0,0,3,0,0,0,1,0,0,0,10,0,0,0,1,0,0,0,18,0,0,0,148,1,0,0,88,1,0,0,60,1,0,0,44,1,0,0,28,1,0,0,12,1,0,0,252,0,0,0,208,0,0,0,188,0,0,0,160,0,0,0,144,0,0,0,136,0,0,0,116,0,0,0,100,0,0,0,84,0,0,0,68,0,0,0,52,0,0,0,4,0,0,0,248,254,255,255,32,0,0,0,8,0,0,0,0,0,0,32,21,0,0,0,70,108,101,120,84,101,110,115,111,114,76,105,115,116,83,101,116,73,116,101,109,0,0,0,236,254,255,255,28,0,0,0,0,0,0,28,248,254,255,255,18,0,0,0,0,0,0,18,4,255,255,255,14,0,0,0,0,0,0,14,16,255,255,255,49,0,0,0,0,0,0,49,28,255,255,255,36,0,0,0,0,0,0,36,4,0,4,0,4,0,0,0,48,255,255,255,86,0,0,0,0,0,0,86,60,255,255,255,58,0,0,0,0,0,0,58,12,0,16,0,15,0,0,0,8,0,4,0,12,0,0,0,9,0,0,0,12,0,0,0,0,0,0,9,156,255,255,255,32,0,0,0,8,0,0,0,0,0,0,32,19,0,0,0,70,108,101,120,84,101,110,115,111,114,76,105,115,116,83,116,97,99,107,0,140,255,255,255,119,0,0,0,0,0,0,119,152,255,255,255,94,0,0,0,0,0,0,94,164,255,255,255,83,0,0,0,0,0,0,83,176,255,255,255,39,0,0,0,0,0,0,39,188,255,255,255,45,0,0,0,0,0,0,45,12,0,16,0,15,0,8,0,0,0,4,0,12,0,0,0,32,0,0,0,8,0,0,0,0,0,0,32,21,0,0,0,70,108,101,120,84,101,110,115,111,114,76,105,115,116,82,101,115,101,114,118,101,0,0,0,12,0,12,0,11,0,0,0,0,0,4,0,12,0,0,0,77,0,0,0,0,0,0,77};